{
  "version": "1.0",
  "truncation": null,
  "padding": null,
  "added_tokens": [
    {
      "id": 0,
      "content": "<|endoftext|>",
      "single_word": false,
      "lstrip": false,
      "rstrip": false,
      "normalized": false,
      "special": true
    }
  ],
  "normalizer": null,
  "pre_tokenizer": {
    "type": "Whitespace"
  },
  "post_processor": null,
  "decoder": {
    "type": "BPEDecoder",
    "suffix": "</w>"
  },
  "model": {
    "type": "BPE",
    "dropout": null,
    "unk_token": null,
    "continuing_subword_prefix": null,
    "end_of_word_suffix": null,
    "fuse_unk": false,
    "byte_fallback": false,
    "ignore_merges": false,
    "vocab": {
      "<|endoftext|>": 0,
      "\t": 1,
      "\n": 2,
      "\r": 3,
      " ": 4,
      "!": 5,
      "\"": 6,
      "#": 7,
      "$": 8,
      "%": 9,
      "&": 10,
      "'": 11,
      "(": 12,
      ")": 13,
      "*": 14,
      "+": 15,
      ",": 16,
      "-": 17,
      ".": 18,
      "/": 19,
      "0": 20,
      "1": 21,
      "2": 22,
      "3": 23,
      "4": 24,
      "5": 25,
      "6": 26,
      "7": 27,
      "8": 28,
      "9": 29,
      ":": 30,
      ";": 31,
      "<": 32,
      "=": 33,
      ">": 34,
      "?": 35,
      "@": 36,
      "A": 37,
      "B": 38,
      "C": 39,
      "D": 40,
      "E": 41,
      "F": 42,
      "G": 43,
      "H": 44,
      "I": 45,
      "J": 46,
      "K": 47,
      "L": 48,
      "M": 49,
      "N": 50,
      "O": 51,
      "P": 52,
      "Q": 53,
      "R": 54,
      "S": 55,
      "T": 56,
      "U": 57,
      "V": 58,
      "W": 59,
      "X": 60,
      "Y": 61,
      "Z": 62,
      "[": 63,
      "\\": 64,
      "]": 65,
      "^": 66,
      "_": 67,
      "`": 68,
      "a": 69,
      "b": 70,
      "c": 71,
      "d": 72,
      "e": 73,
      "f": 74,
      "g": 75,
      "h": 76,
      "i": 77,
      "j": 78,
      "k": 79,
      "l": 80,
      "m": 81,
      "n": 82,
      "o": 83,
      "p": 84,
      "q": 85,
      "r": 86,
      "s": 87,
      "t": 88,
      "u": 89,
      "v": 90,
      "w": 91,
      "x": 92,
      "y": 93,
      "z": 94,
      "{": 95,
      "|": 96,
      "}": 97,
      "~": 98,
      "": 99,
      "": 100,
      " ": 101,
      "¡": 102,
      "£": 103,
      "¤": 104,
      "¥": 105,
      "¦": 106,
      "§": 107,
      "¨": 108,
      "©": 109,
      "«": 110,
      "¬": 111,
      "­": 112,
      "®": 113,
      "¯": 114,
      "°": 115,
      "±": 116,
      "²": 117,
      "³": 118,
      "´": 119,
      "µ": 120,
      "¶": 121,
      "·": 122,
      "¸": 123,
      "¹": 124,
      "º": 125,
      "»": 126,
      "¼": 127,
      "½": 128,
      "¾": 129,
      "¿": 130,
      "À": 131,
      "Á": 132,
      "Â": 133,
      "Ä": 134,
      "Å": 135,
      "Æ": 136,
      "Ç": 137,
      "È": 138,
      "É": 139,
      "Ê": 140,
      "Ë": 141,
      "Í": 142,
      "Î": 143,
      "Ï": 144,
      "Ò": 145,
      "Ó": 146,
      "Ô": 147,
      "Ö": 148,
      "×": 149,
      "Ø": 150,
      "Ú": 151,
      "Ü": 152,
      "ß": 153,
      "à": 154,
      "á": 155,
      "â": 156,
      "ã": 157,
      "ä": 158,
      "å": 159,
      "æ": 160,
      "ç": 161,
      "è": 162,
      "é": 163,
      "ê": 164,
      "ë": 165,
      "ì": 166,
      "í": 167,
      "î": 168,
      "ï": 169,
      "ð": 170,
      "ñ": 171,
      "ò": 172,
      "ó": 173,
      "ô": 174,
      "õ": 175,
      "ö": 176,
      "÷": 177,
      "ø": 178,
      "ú": 179,
      "û": 180,
      "ü": 181,
      "ý": 182,
      "ÿ": 183,
      "Ā": 184,
      "ā": 185,
      "ă": 186,
      "Ą": 187,
      "ą": 188,
      "Ć": 189,
      "ć": 190,
      "ĉ": 191,
      "Č": 192,
      "č": 193,
      "Đ": 194,
      "đ": 195,
      "ē": 196,
      "ė": 197,
      "Ę": 198,
      "ę": 199,
      "ě": 200,
      "ĝ": 201,
      "ğ": 202,
      "Ģ": 203,
      "ģ": 204,
      "ĥ": 205,
      "ī": 206,
      "ĭ": 207,
      "İ": 208,
      "ı": 209,
      "Ĵ": 210,
      "ĵ": 211,
      "ķ": 212,
      "ļ": 213,
      "Ł": 214,
      "ł": 215,
      "ń": 216,
      "Ō": 217,
      "ō": 218,
      "œ": 219,
      "ŗ": 220,
      "Ř": 221,
      "ř": 222,
      "Ś": 223,
      "ś": 224,
      "ŝ": 225,
      "ş": 226,
      "Š": 227,
      "š": 228,
      "Ţ": 229,
      "ţ": 230,
      "ŧ": 231,
      "ū": 232,
      "ŭ": 233,
      "ů": 234,
      "ź": 235,
      "Ż": 236,
      "ż": 237,
      "Ž": 238,
      "ž": 239,
      "Ɔ": 240,
      "Ǝ": 241,
      "ƒ": 242,
      "ơ": 243,
      "ư": 244,
      "ƺ": 245,
      "ƿ": 246,
      "ǎ": 247,
      "ǐ": 248,
      "ǒ": 249,
      "ǔ": 250,
      "ǣ": 251,
      "ǻ": 252,
      "Ș": 253,
      "ș": 254,
      "ț": 255,
      "ȣ": 256,
      "ȼ": 257,
      "ə": 258,
      "ɛ": 259,
      "ɣ": 260,
      "ɪ": 261,
      "ɾ": 262,
      "ʀ": 263,
      "ʁ": 264,
      "ʊ": 265,
      "ʔ": 266,
      "ʕ": 267,
      "ʖ": 268,
      "ʘ": 269,
      "ʰ": 270,
      "ʷ": 271,
      "ʼ": 272,
      "ˈ": 273,
      "ˑ": 274,
      "˚": 275,
      "˜": 276,
      "̀": 277,
      "́": 278,
      "̂": 279,
      "̃": 280,
      "̄": 281,
      "̅": 282,
      "̆": 283,
      "̇": 284,
      "̈": 285,
      "̉": 286,
      "̊": 287,
      "̋": 288,
      "̌": 289,
      "̍": 290,
      "̎": 291,
      "̏": 292,
      "̐": 293,
      "̑": 294,
      "̒": 295,
      "̓": 296,
      "̔": 297,
      "̕": 298,
      "̖": 299,
      "̗": 300,
      "̘": 301,
      "̙": 302,
      "̚": 303,
      "̛": 304,
      "̜": 305,
      "̝": 306,
      "̞": 307,
      "̟": 308,
      "̠": 309,
      "̡": 310,
      "̢": 311,
      "̣": 312,
      "̤": 313,
      "̥": 314,
      "̦": 315,
      "̧": 316,
      "̨": 317,
      "̩": 318,
      "̪": 319,
      "̫": 320,
      "̬": 321,
      "̭": 322,
      "̮": 323,
      "̯": 324,
      "̰": 325,
      "̱": 326,
      "̲": 327,
      "̳": 328,
      "̴": 329,
      "̵": 330,
      "̶": 331,
      "̷": 332,
      "̸": 333,
      "̹": 334,
      "̺": 335,
      "̻": 336,
      "̼": 337,
      "̽": 338,
      "̾": 339,
      "̿": 340,
      "͂": 341,
      "ͅ": 342,
      "͆": 343,
      "͇": 344,
      "͈": 345,
      "͉": 346,
      "͊": 347,
      "͋": 348,
      "͌": 349,
      "͍": 350,
      "͎": 351,
      "͏": 352,
      "͐": 353,
      "͑": 354,
      "͒": 355,
      "͓": 356,
      "͔": 357,
      "͕": 358,
      "͖": 359,
      "͗": 360,
      "͘": 361,
      "͙": 362,
      "͚": 363,
      "͛": 364,
      "͜": 365,
      "͝": 366,
      "͞": 367,
      "͟": 368,
      "͠": 369,
      "͡": 370,
      "͢": 371,
      "ͣ": 372,
      "ͤ": 373,
      "ͥ": 374,
      "ͦ": 375,
      "ͧ": 376,
      "ͨ": 377,
      "ͩ": 378,
      "ͪ": 379,
      "ͫ": 380,
      "ͬ": 381,
      "ͭ": 382,
      "ͮ": 383,
      "ͯ": 384,
      "Ά": 385,
      "Έ": 386,
      "Ό": 387,
      "Ώ": 388,
      "Α": 389,
      "Β": 390,
      "Γ": 391,
      "Δ": 392,
      "Ε": 393,
      "Ζ": 394,
      "Η": 395,
      "Θ": 396,
      "Ι": 397,
      "Κ": 398,
      "Λ": 399,
      "Μ": 400,
      "Ν": 401,
      "Ο": 402,
      "Π": 403,
      "Ρ": 404,
      "Σ": 405,
      "Τ": 406,
      "Φ": 407,
      "Χ": 408,
      "Ψ": 409,
      "Ω": 410,
      "ά": 411,
      "έ": 412,
      "ή": 413,
      "ί": 414,
      "α": 415,
      "β": 416,
      "γ": 417,
      "δ": 418,
      "ε": 419,
      "ζ": 420,
      "η": 421,
      "θ": 422,
      "ι": 423,
      "κ": 424,
      "λ": 425,
      "μ": 426,
      "ν": 427,
      "ξ": 428,
      "ο": 429,
      "π": 430,
      "ρ": 431,
      "ς": 432,
      "σ": 433,
      "τ": 434,
      "υ": 435,
      "φ": 436,
      "χ": 437,
      "ψ": 438,
      "ω": 439,
      "ϊ": 440,
      "ό": 441,
      "ύ": 442,
      "ώ": 443,
      "ϑ": 444,
      "ϛ": 445,
      "ϟ": 446,
      "ϰ": 447,
      "Ё": 448,
      "Ђ": 449,
      "Ѓ": 450,
      "Є": 451,
      "Ѕ": 452,
      "І": 453,
      "Ї": 454,
      "Ј": 455,
      "Њ": 456,
      "Ќ": 457,
      "Ў": 458,
      "Џ": 459,
      "А": 460,
      "Б": 461,
      "В": 462,
      "Г": 463,
      "Д": 464,
      "Е": 465,
      "Ж": 466,
      "З": 467,
      "И": 468,
      "Й": 469,
      "К": 470,
      "Л": 471,
      "М": 472,
      "Н": 473,
      "О": 474,
      "П": 475,
      "Р": 476,
      "С": 477,
      "Т": 478,
      "У": 479,
      "Ф": 480,
      "Х": 481,
      "Ц": 482,
      "Ч": 483,
      "Ш": 484,
      "Щ": 485,
      "Ъ": 486,
      "Ы": 487,
      "Ь": 488,
      "Э": 489,
      "Ю": 490,
      "Я": 491,
      "а": 492,
      "б": 493,
      "в": 494,
      "г": 495,
      "д": 496,
      "е": 497,
      "ж": 498,
      "з": 499,
      "и": 500,
      "й": 501,
      "к": 502,
      "л": 503,
      "м": 504,
      "н": 505,
      "о": 506,
      "п": 507,
      "р": 508,
      "с": 509,
      "т": 510,
      "у": 511,
      "ф": 512,
      "х": 513,
      "ц": 514,
      "ч": 515,
      "ш": 516,
      "щ": 517,
      "ъ": 518,
      "ы": 519,
      "ь": 520,
      "э": 521,
      "ю": 522,
      "я": 523,
      "ё": 524,
      "ђ": 525,
      "ѓ": 526,
      "є": 527,
      "і": 528,
      "ї": 529,
      "ј": 530,
      "љ": 531,
      "њ": 532,
      "ћ": 533,
      "ќ": 534,
      "ѝ": 535,
      "ў": 536,
      "ѡ": 537,
      "Ѣ": 538,
      "ѣ": 539,
      "ѥ": 540,
      "Ѧ": 541,
      "ѧ": 542,
      "ѩ": 543,
      "Ѫ": 544,
      "ѫ": 545,
      "Ѯ": 546,
      "ѯ": 547,
      "Ѳ": 548,
      "ѳ": 549,
      "ѵ": 550,
      "ѹ": 551,
      "ѻ": 552,
      "ѿ": 553,
      "ҁ": 554,
      "҃": 555,
      "҄": 556,
      "҆": 557,
      "҇": 558,
      "҉": 559,
      "Ґ": 560,
      "ґ": 561,
      "Ғ": 562,
      "ғ": 563,
      "ҙ": 564,
      "Қ": 565,
      "қ": 566,
      "ҟ": 567,
      "ң": 568,
      "ҧ": 569,
      "Ү": 570,
      "ү": 571,
      "ұ": 572,
      "Ӑ": 573,
      "ӑ": 574,
      "ӓ": 575,
      "ӕ": 576,
      "ә": 577,
      "Ӝ": 578,
      "ӝ": 579,
      "ӟ": 580,
      "ӣ": 581,
      "ӥ": 582,
      "Ӧ": 583,
      "ӧ": 584,
      "Ө": 585,
      "ө": 586,
      "ӵ": 587,
      "Ա": 588,
      "Բ": 589,
      "Գ": 590,
      "Ե": 591,
      "Ի": 592,
      "Կ": 593,
      "Հ": 594,
      "Մ": 595,
      "Ո": 596,
      "Պ": 597,
      "Վ": 598,
      "Տ": 599,
      "Ք": 600,
      "ա": 601,
      "գ": 602,
      "դ": 603,
      "ե": 604,
      "թ": 605,
      "ի": 606,
      "խ": 607,
      "ծ": 608,
      "կ": 609,
      "հ": 610,
      "ղ": 611,
      "յ": 612,
      "ն": 613,
      "շ": 614,
      "ո": 615,
      "չ": 616,
      "ջ": 617,
      "ռ": 618,
      "ս": 619,
      "վ": 620,
      "տ": 621,
      "ր": 622,
      "ց": 623,
      "ւ": 624,
      "ք": 625,
      "և": 626,
      "ְ": 627,
      "ֱ": 628,
      "ֲ": 629,
      "ִ": 630,
      "ֵ": 631,
      "ֶ": 632,
      "ַ": 633,
      "ָ": 634,
      "ֹ": 635,
      "ֺ": 636,
      "ּ": 637,
      "־": 638,
      "ֿ": 639,
      "ׁ": 640,
      "א": 641,
      "ב": 642,
      "ג": 643,
      "ד": 644,
      "ה": 645,
      "ו": 646,
      "ז": 647,
      "ח": 648,
      "ט": 649,
      "י": 650,
      "ך": 651,
      "כ": 652,
      "ל": 653,
      "ם": 654,
      "מ": 655,
      "ן": 656,
      "נ": 657,
      "ס": 658,
      "ע": 659,
      "ף": 660,
      "פ": 661,
      "ץ": 662,
      "צ": 663,
      "ק": 664,
      "ר": 665,
      "ש": 666,
      "ת": 667,
      "װ": 668,
      "ײ": 669,
      "׳": 670,
      "״": 671,
      "؟": 672,
      "ء": 673,
      "آ": 674,
      "أ": 675,
      "إ": 676,
      "ئ": 677,
      "ا": 678,
      "ب": 679,
      "ة": 680,
      "ت": 681,
      "ج": 682,
      "ح": 683,
      "خ": 684,
      "د": 685,
      "ذ": 686,
      "ر": 687,
      "ز": 688,
      "س": 689,
      "ش": 690,
      "ص": 691,
      "ض": 692,
      "ط": 693,
      "ظ": 694,
      "ع": 695,
      "غ": 696,
      "ف": 697,
      "ق": 698,
      "ك": 699,
      "ل": 700,
      "م": 701,
      "ن": 702,
      "ه": 703,
      "و": 704,
      "ى": 705,
      "ي": 706,
      "ٌ": 707,
      "ٍ": 708,
      "َ": 709,
      "ُ": 710,
      "ِ": 711,
      "ّ": 712,
      "ْ": 713,
      "ٰ": 714,
      "ٱ": 715,
      "پ": 716,
      "چ": 717,
      "ک": 718,
      "ڭ": 719,
      "گ": 720,
      "ہ": 721,
      "ۇ": 722,
      "ی": 723,
      "ە": 724,
      "۩": 725,
      "߶": 726,
      "ं": 727,
      "अ": 728,
      "उ": 729,
      "औ": 730,
      "क": 731,
      "ख": 732,
      "ग": 733,
      "घ": 734,
      "च": 735,
      "ज": 736,
      "ट": 737,
      "ड": 738,
      "ण": 739,
      "त": 740,
      "थ": 741,
      "द": 742,
      "न": 743,
      "प": 744,
      "फ": 745,
      "ब": 746,
      "भ": 747,
      "म": 748,
      "य": 749,
      "र": 750,
      "ल": 751,
      "व": 752,
      "श": 753,
      "स": 754,
      "ह": 755,
      "़": 756,
      "ा": 757,
      "ि": 758,
      "ी": 759,
      "ु": 760,
      "ू": 761,
      "े": 762,
      "ै": 763,
      "ो": 764,
      "ौ": 765,
      "्": 766,
      "ॐ": 767,
      "দ": 768,
      "ম": 769,
      "ਕ": 770,
      "ਣ": 771,
      "ਤ": 772,
      "ੁ": 773,
      "ખ": 774,
      "ફ": 775,
      "બ": 776,
      "ર": 777,
      "લ": 778,
      "સ": 779,
      "ા": 780,
      "ો": 781,
      "્": 782,
      "వ": 783,
      "ಠ": 784,
      "ง": 785,
      "ช": 786,
      "ณ": 787,
      "ด": 788,
      "ท": 789,
      "น": 790,
      "ม": 791,
      "ย": 792,
      "ร": 793,
      "ว": 794,
      "ส": 795,
      "ห": 796,
      "อ": 797,
      "ะ": 798,
      "า": 799,
      "ำ": 800,
      "ุ": 801,
      "฿": 802,
      "เ": 803,
      "้": 804,
      "༼": 805,
      "༽": 806,
      "ა": 807,
      "ბ": 808,
      "გ": 809,
      "დ": 810,
      "ე": 811,
      "ვ": 812,
      "ზ": 813,
      "თ": 814,
      "ი": 815,
      "კ": 816,
      "ლ": 817,
      "მ": 818,
      "ნ": 819,
      "ო": 820,
      "პ": 821,
      "რ": 822,
      "ს": 823,
      "ტ": 824,
      "უ": 825,
      "ფ": 826,
      "ქ": 827,
      "ყ": 828,
      "შ": 829,
      "ჩ": 830,
      "ც": 831,
      "ძ": 832,
      "წ": 833,
      "ჭ": 834,
      "ხ": 835,
      "ჯ": 836,
      "ቡ": 837,
      "ና": 838,
      "Ꭺ": 839,
      "Ꭼ": 840,
      "Ꮖ": 841,
      "Ꮩ": 842,
      "Ꮮ": 843,
      "Ꮹ": 844,
      " ": 845,
      "ᚁ": 846,
      "ᚂ": 847,
      "ᚄ": 848,
      "ᚅ": 849,
      "ᚆ": 850,
      "ᚇ": 851,
      "ᚉ": 852,
      "ᚋ": 853,
      "ᚌ": 854,
      "ᚏ": 855,
      "ᚐ": 856,
      "ᚑ": 857,
      "ᚓ": 858,
      "ᚔ": 859,
      "ᚘ": 860,
      "ᠠ": 861,
      "ᠨ": 862,
      "ᠷ": 863,
      "ᡆ": 864,
      "ᡇ": 865,
      "ᢘ": 866,
      "ḗ": 867,
      "ḙ": 868,
      "ḛ": 869,
      "ḣ": 870,
      "ḥ": 871,
      "Ḧ": 872,
      "ḧ": 873,
      "ḩ": 874,
      "ḫ": 875,
      "ḯ": 876,
      "ṁ": 877,
      "ṃ": 878,
      "ṇ": 879,
      "ṋ": 880,
      "ṓ": 881,
      "ṛ": 882,
      "ṯ": 883,
      "Ẅ": 884,
      "ẅ": 885,
      "ẗ": 886,
      "ạ": 887,
      "ằ": 888,
      "Ẳ": 889,
      "ẽ": 890,
      "ệ": 891,
      "ỉ": 892,
      "ị": 893,
      "ọ": 894,
      "ớ": 895,
      "ờ": 896,
      "ở": 897,
      "ụ": 898,
      "ủ": 899,
      "ữ": 900,
      "ự": 901,
      "ỳ": 902,
      "ἀ": 903,
      "ἄ": 904,
      "Ἀ": 905,
      "Ἁ": 906,
      "Ἅ": 907,
      "ἐ": 908,
      "ἔ": 909,
      "ἡ": 910,
      "ἥ": 911,
      "ἰ": 912,
      "ἱ": 913,
      "ἴ": 914,
      "ἵ": 915,
      "ἶ": 916,
      "ὀ": 917,
      "ὁ": 918,
      "ὅ": 919,
      "ὐ": 920,
      "ὕ": 921,
      "ὡ": 922,
      "ὰ": 923,
      "ὲ": 924,
      "ὴ": 925,
      "ὸ": 926,
      "ῆ": 927,
      "῎": 928,
      "ῖ": 929,
      "ῦ": 930,
      "Ῥ": 931,
      "ῶ": 932,
      "῾": 933,
      " ": 934,
      " ": 935,
      " ": 936,
      " ": 937,
      " ": 938,
      " ": 939,
      "​": 940,
      "‌": 941,
      "‍": 942,
      "‎": 943,
      "‏": 944,
      "‑": 945,
      "‒": 946,
      "–": 947,
      "—": 948,
      "―": 949,
      "‘": 950,
      "’": 951,
      "‚": 952,
      "‛": 953,
      "“": 954,
      "”": 955,
      "„": 956,
      "†": 957,
      "‡": 958,
      "•": 959,
      "‥": 960,
      "…": 961,
      " ": 962,
      "‬": 963,
      "‭": 964,
      " ": 965,
      "‱": 966,
      "′": 967,
      "″": 968,
      "‼": 969,
      "‿": 970,
      "⁂": 971,
      "⁄": 972,
      "⁠": 973,
      "⁴": 974,
      "₁": 975,
      "₂": 976,
      "₇": 977,
      "€": 978,
      "₽": 979,
      "⃞": 980,
      "ℓ": 981,
      "ℕ": 982,
      "№": 983,
      "ℝ": 984,
      "™": 985,
      "℧": 986,
      "⅓": 987,
      "⅟": 988,
      "Ⅰ": 989,
      "←": 990,
      "↑": 991,
      "→": 992,
      "↓": 993,
      "↔": 994,
      "↕": 995,
      "↨": 996,
      "↯": 997,
      "⇒": 998,
      "⇧": 999,
      "∀": 1000,
      "∃": 1001,
      "∅": 1002,
      "−": 1003,
      "∙": 1004,
      "√": 1005,
      "∞": 1006,
      "∟": 1007,
      "∧": 1008,
      "∨": 1009,
      "∩": 1010,
      "∪": 1011,
      "∴": 1012,
      "≈": 1013,
      "≠": 1014,
      "≡": 1015,
      "≤": 1016,
      "≥": 1017,
      "⊂": 1018,
      "⋅": 1019,
      "⌒": 1020,
      "⌘": 1021,
      "⎇": 1022,
      "⎳": 1023,
      "␄": 1024,
      "␑": 1025,
      "─": 1026,
      "▀": 1027,
      "█": 1028,
      "▒": 1029,
      "■": 1030,
      "□": 1031,
      "▪": 1032,
      "▬": 1033,
      "▲": 1034,
      "△": 1035,
      "►": 1036,
      "▼": 1037,
      "▽": 1038,
      "◄": 1039,
      "◊": 1040,
      "○": 1041,
      "●": 1042,
      "◕": 1043,
      "◘": 1044,
      "◙": 1045,
      "◬": 1046,
      "★": 1047,
      "☆": 1048,
      "☑": 1049,
      "☕": 1050,
      "☝": 1051,
      "☠": 1052,
      "☥": 1053,
      "☦": 1054,
      "☨": 1055,
      "☭": 1056,
      "☮": 1057,
      "☺": 1058,
      "☻": 1059,
      "☼": 1060,
      "♀": 1061,
      "♂": 1062,
      "♃": 1063,
      "♠": 1064,
      "♣": 1065,
      "♥": 1066,
      "♦": 1067,
      "♪": 1068,
      "♫": 1069,
      "♯": 1070,
      "⚠": 1071,
      "⚡": 1072,
      "✅": 1073,
      "✔": 1074,
      "✡": 1075,
      "❤": 1076,
      "⠀": 1077,
      "⭐": 1078,
      "ⷭ": 1079,
      "⸮": 1080,
      "　": 1081,
      "、": 1082,
      "。": 1083,
      "々": 1084,
      "《": 1085,
      "》": 1086,
      "「": 1087,
      "」": 1088,
      "『": 1089,
      "』": 1090,
      "〜": 1091,
      "ぁ": 1092,
      "あ": 1093,
      "ぃ": 1094,
      "い": 1095,
      "ぅ": 1096,
      "う": 1097,
      "え": 1098,
      "お": 1099,
      "か": 1100,
      "が": 1101,
      "き": 1102,
      "ぎ": 1103,
      "く": 1104,
      "ぐ": 1105,
      "け": 1106,
      "げ": 1107,
      "こ": 1108,
      "ご": 1109,
      "さ": 1110,
      "ざ": 1111,
      "し": 1112,
      "じ": 1113,
      "す": 1114,
      "ず": 1115,
      "せ": 1116,
      "そ": 1117,
      "ぞ": 1118,
      "た": 1119,
      "だ": 1120,
      "ち": 1121,
      "っ": 1122,
      "つ": 1123,
      "て": 1124,
      "で": 1125,
      "と": 1126,
      "ど": 1127,
      "な": 1128,
      "に": 1129,
      "ぬ": 1130,
      "ね": 1131,
      "の": 1132,
      "は": 1133,
      "ば": 1134,
      "ぱ": 1135,
      "ひ": 1136,
      "び": 1137,
      "ぴ": 1138,
      "ふ": 1139,
      "ぶ": 1140,
      "べ": 1141,
      "ぺ": 1142,
      "ほ": 1143,
      "ぼ": 1144,
      "ぽ": 1145,
      "ま": 1146,
      "み": 1147,
      "む": 1148,
      "め": 1149,
      "も": 1150,
      "ゃ": 1151,
      "や": 1152,
      "ゆ": 1153,
      "ょ": 1154,
      "よ": 1155,
      "ら": 1156,
      "り": 1157,
      "る": 1158,
      "れ": 1159,
      "ろ": 1160,
      "わ": 1161,
      "を": 1162,
      "ん": 1163,
      "ァ": 1164,
      "ア": 1165,
      "ィ": 1166,
      "イ": 1167,
      "ゥ": 1168,
      "ウ": 1169,
      "ェ": 1170,
      "エ": 1171,
      "ォ": 1172,
      "オ": 1173,
      "カ": 1174,
      "ガ": 1175,
      "キ": 1176,
      "ギ": 1177,
      "ク": 1178,
      "グ": 1179,
      "ケ": 1180,
      "ゲ": 1181,
      "コ": 1182,
      "ゴ": 1183,
      "サ": 1184,
      "ザ": 1185,
      "シ": 1186,
      "ジ": 1187,
      "ス": 1188,
      "ズ": 1189,
      "セ": 1190,
      "ゼ": 1191,
      "ソ": 1192,
      "ゾ": 1193,
      "タ": 1194,
      "ダ": 1195,
      "チ": 1196,
      "ッ": 1197,
      "ツ": 1198,
      "テ": 1199,
      "デ": 1200,
      "ト": 1201,
      "ド": 1202,
      "ナ": 1203,
      "ニ": 1204,
      "ヌ": 1205,
      "ネ": 1206,
      "ノ": 1207,
      "ハ": 1208,
      "バ": 1209,
      "パ": 1210,
      "ヒ": 1211,
      "ビ": 1212,
      "ピ": 1213,
      "フ": 1214,
      "ブ": 1215,
      "プ": 1216,
      "ヘ": 1217,
      "ベ": 1218,
      "ペ": 1219,
      "ホ": 1220,
      "ボ": 1221,
      "ポ": 1222,
      "マ": 1223,
      "ミ": 1224,
      "ム": 1225,
      "メ": 1226,
      "モ": 1227,
      "ャ": 1228,
      "ヤ": 1229,
      "ュ": 1230,
      "ユ": 1231,
      "ョ": 1232,
      "ヨ": 1233,
      "ラ": 1234,
      "リ": 1235,
      "ル": 1236,
      "レ": 1237,
      "ロ": 1238,
      "ワ": 1239,
      "ヲ": 1240,
      "ン": 1241,
      "ヴ": 1242,
      "ヶ": 1243,
      "・": 1244,
      "ー": 1245,
      "ヽ": 1246,
      "ㅋ": 1247,
      "ㆍ": 1248,
      "一": 1249,
      "七": 1250,
      "万": 1251,
      "三": 1252,
      "上": 1253,
      "下": 1254,
      "不": 1255,
      "与": 1256,
      "世": 1257,
      "东": 1258,
      "中": 1259,
      "丸": 1260,
      "主": 1261,
      "乃": 1262,
      "久": 1263,
      "之": 1264,
      "乌": 1265,
      "乐": 1266,
      "乘": 1267,
      "乙": 1268,
      "乱": 1269,
      "乳": 1270,
      "乾": 1271,
      "争": 1272,
      "事": 1273,
      "二": 1274,
      "五": 1275,
      "井": 1276,
      "亜": 1277,
      "亞": 1278,
      "京": 1279,
      "亮": 1280,
      "人": 1281,
      "亿": 1282,
      "什": 1283,
      "今": 1284,
      "他": 1285,
      "付": 1286,
      "仙": 1287,
      "代": 1288,
      "令": 1289,
      "仮": 1290,
      "件": 1291,
      "伏": 1292,
      "会": 1293,
      "伝": 1294,
      "伸": 1295,
      "住": 1296,
      "佐": 1297,
      "佑": 1298,
      "体": 1299,
      "作": 1300,
      "你": 1301,
      "使": 1302,
      "例": 1303,
      "侍": 1304,
      "依": 1305,
      "侵": 1306,
      "俄": 1307,
      "俐": 1308,
      "俺": 1309,
      "倉": 1310,
      "個": 1311,
      "借": 1312,
      "倫": 1313,
      "偵": 1314,
      "偶": 1315,
      "偷": 1316,
      "偽": 1317,
      "傑": 1318,
      "催": 1319,
      "傷": 1320,
      "僕": 1321,
      "儀": 1322,
      "儒": 1323,
      "元": 1324,
      "兄": 1325,
      "先": 1326,
      "光": 1327,
      "克": 1328,
      "兎": 1329,
      "党": 1330,
      "入": 1331,
      "全": 1332,
      "八": 1333,
      "公": 1334,
      "六": 1335,
      "共": 1336,
      "兵": 1337,
      "具": 1338,
      "典": 1339,
      "兼": 1340,
      "冒": 1341,
      "冨": 1342,
      "冬": 1343,
      "冶": 1344,
      "凰": 1345,
      "凶": 1346,
      "出": 1347,
      "刀": 1348,
      "刃": 1349,
      "分": 1350,
      "切": 1351,
      "刑": 1352,
      "列": 1353,
      "初": 1354,
      "判": 1355,
      "別": 1356,
      "利": 1357,
      "削": 1358,
      "前": 1359,
      "剑": 1360,
      "剛": 1361,
      "剣": 1362,
      "副": 1363,
      "力": 1364,
      "加": 1365,
      "动": 1366,
      "助": 1367,
      "势": 1368,
      "勇": 1369,
      "勉": 1370,
      "動": 1371,
      "勢": 1372,
      "勲": 1373,
      "化": 1374,
      "北": 1375,
      "匣": 1376,
      "区": 1377,
      "医": 1378,
      "十": 1379,
      "千": 1380,
      "升": 1381,
      "卐": 1382,
      "協": 1383,
      "南": 1384,
      "単": 1385,
      "博": 1386,
      "卡": 1387,
      "危": 1388,
      "却": 1389,
      "原": 1390,
      "厥": 1391,
      "去": 1392,
      "参": 1393,
      "友": 1394,
      "双": 1395,
      "反": 1396,
      "取": 1397,
      "口": 1398,
      "古": 1399,
      "可": 1400,
      "台": 1401,
      "史": 1402,
      "右": 1403,
      "吃": 1404,
      "合": 1405,
      "吉": 1406,
      "吊": 1407,
      "同": 1408,
      "名": 1409,
      "吐": 1410,
      "君": 1411,
      "吹": 1412,
      "吾": 1413,
      "呀": 1414,
      "员": 1415,
      "呪": 1416,
      "味": 1417,
      "命": 1418,
      "和": 1419,
      "咲": 1420,
      "咽": 1421,
      "哈": 1422,
      "哎": 1423,
      "哟": 1424,
      "員": 1425,
      "哦": 1426,
      "唄": 1427,
      "唐": 1428,
      "唱": 1429,
      "啊": 1430,
      "喜": 1431,
      "喲": 1432,
      "嗎": 1433,
      "嗜": 1434,
      "嘘": 1435,
      "器": 1436,
      "囃": 1437,
      "四": 1438,
      "回": 1439,
      "因": 1440,
      "団": 1441,
      "図": 1442,
      "国": 1443,
      "國": 1444,
      "園": 1445,
      "土": 1446,
      "圧": 1447,
      "在": 1448,
      "地": 1449,
      "坤": 1450,
      "城": 1451,
      "域": 1452,
      "基": 1453,
      "堀": 1454,
      "堂": 1455,
      "場": 1456,
      "塊": 1457,
      "塚": 1458,
      "塞": 1459,
      "塩": 1460,
      "境": 1461,
      "墨": 1462,
      "墮": 1463,
      "士": 1464,
      "声": 1465,
      "変": 1466,
      "夏": 1467,
      "外": 1468,
      "夜": 1469,
      "夢": 1470,
      "大": 1471,
      "天": 1472,
      "太": 1473,
      "夫": 1474,
      "夭": 1475,
      "失": 1476,
      "头": 1477,
      "奇": 1478,
      "奈": 1479,
      "契": 1480,
      "奨": 1481,
      "女": 1482,
      "好": 1483,
      "妄": 1484,
      "妈": 1485,
      "妖": 1486,
      "妙": 1487,
      "妝": 1488,
      "妹": 1489,
      "妻": 1490,
      "姉": 1491,
      "始": 1492,
      "姑": 1493,
      "委": 1494,
      "姚": 1495,
      "姦": 1496,
      "姫": 1497,
      "娘": 1498,
      "婚": 1499,
      "媚": 1500,
      "媧": 1501,
      "媮": 1502,
      "嫌": 1503,
      "子": 1504,
      "孔": 1505,
      "字": 1506,
      "存": 1507,
      "季": 1508,
      "学": 1509,
      "它": 1510,
      "宇": 1511,
      "守": 1512,
      "安": 1513,
      "宏": 1514,
      "官": 1515,
      "宙": 1516,
      "定": 1517,
      "宝": 1518,
      "实": 1519,
      "客": 1520,
      "室": 1521,
      "宮": 1522,
      "害": 1523,
      "家": 1524,
      "寂": 1525,
      "寝": 1526,
      "察": 1527,
      "實": 1528,
      "寺": 1529,
      "対": 1530,
      "射": 1531,
      "尊": 1532,
      "尋": 1533,
      "小": 1534,
      "少": 1535,
      "尔": 1536,
      "尸": 1537,
      "尼": 1538,
      "局": 1539,
      "居": 1540,
      "屈": 1541,
      "屋": 1542,
      "屍": 1543,
      "屎": 1544,
      "屑": 1545,
      "屮": 1546,
      "山": 1547,
      "岡": 1548,
      "岩": 1549,
      "岭": 1550,
      "峰": 1551,
      "島": 1552,
      "崎": 1553,
      "崴": 1554,
      "川": 1555,
      "巡": 1556,
      "工": 1557,
      "巨": 1558,
      "巫": 1559,
      "差": 1560,
      "巴": 1561,
      "市": 1562,
      "布": 1563,
      "师": 1564,
      "希": 1565,
      "帝": 1566,
      "師": 1567,
      "帰": 1568,
      "常": 1569,
      "幕": 1570,
      "干": 1571,
      "平": 1572,
      "年": 1573,
      "幹": 1574,
      "幼": 1575,
      "幽": 1576,
      "広": 1577,
      "府": 1578,
      "座": 1579,
      "庭": 1580,
      "延": 1581,
      "弁": 1582,
      "式": 1583,
      "弐": 1584,
      "弓": 1585,
      "引": 1586,
      "弗": 1587,
      "弦": 1588,
      "弱": 1589,
      "強": 1590,
      "弾": 1591,
      "当": 1592,
      "彡": 1593,
      "形": 1594,
      "彦": 1595,
      "影": 1596,
      "役": 1597,
      "彼": 1598,
      "径": 1599,
      "後": 1600,
      "徒": 1601,
      "御": 1602,
      "復": 1603,
      "徵": 1604,
      "德": 1605,
      "心": 1606,
      "忍": 1607,
      "志": 1608,
      "忘": 1609,
      "忧": 1610,
      "念": 1611,
      "怖": 1612,
      "思": 1613,
      "性": 1614,
      "怪": 1615,
      "总": 1616,
      "恃": 1617,
      "恋": 1618,
      "恐": 1619,
      "恵": 1620,
      "悠": 1621,
      "悦": 1622,
      "悪": 1623,
      "情": 1624,
      "惑": 1625,
      "惕": 1626,
      "惡": 1627,
      "想": 1628,
      "意": 1629,
      "愛": 1630,
      "慶": 1631,
      "憂": 1632,
      "憐": 1633,
      "憑": 1634,
      "成": 1635,
      "我": 1636,
      "戟": 1637,
      "戦": 1638,
      "戯": 1639,
      "戰": 1640,
      "戸": 1641,
      "房": 1642,
      "所": 1643,
      "手": 1644,
      "打": 1645,
      "托": 1646,
      "承": 1647,
      "抖": 1648,
      "抱": 1649,
      "拉": 1650,
      "拝": 1651,
      "拭": 1652,
      "拳": 1653,
      "拼": 1654,
      "拾": 1655,
      "持": 1656,
      "振": 1657,
      "掛": 1658,
      "探": 1659,
      "描": 1660,
      "損": 1661,
      "摩": 1662,
      "撃": 1663,
      "操": 1664,
      "擬": 1665,
      "改": 1666,
      "攻": 1667,
      "政": 1668,
      "敏": 1669,
      "救": 1670,
      "教": 1671,
      "敵": 1672,
      "數": 1673,
      "文": 1674,
      "斗": 1675,
      "料": 1676,
      "斯": 1677,
      "新": 1678,
      "方": 1679,
      "施": 1680,
      "族": 1681,
      "日": 1682,
      "时": 1683,
      "明": 1684,
      "星": 1685,
      "映": 1686,
      "春": 1687,
      "是": 1688,
      "時": 1689,
      "晋": 1690,
      "普": 1691,
      "晴": 1692,
      "智": 1693,
      "暗": 1694,
      "暴": 1695,
      "曲": 1696,
      "書": 1697,
      "替": 1698,
      "最": 1699,
      "月": 1700,
      "有": 1701,
      "望": 1702,
      "朝": 1703,
      "期": 1704,
      "木": 1705,
      "未": 1706,
      "末": 1707,
      "本": 1708,
      "李": 1709,
      "村": 1710,
      "束": 1711,
      "来": 1712,
      "東": 1713,
      "松": 1714,
      "析": 1715,
      "枕": 1716,
      "林": 1717,
      "枪": 1718,
      "柊": 1719,
      "柔": 1720,
      "柚": 1721,
      "柯": 1722,
      "校": 1723,
      "株": 1724,
      "格": 1725,
      "桂": 1726,
      "桃": 1727,
      "桑": 1728,
      "桜": 1729,
      "棒": 1730,
      "森": 1731,
      "検": 1732,
      "業": 1733,
      "極": 1734,
      "楽": 1735,
      "概": 1736,
      "榊": 1737,
      "様": 1738,
      "樹": 1739,
      "橙": 1740,
      "機": 1741,
      "櫻": 1742,
      "欠": 1743,
      "次": 1744,
      "歌": 1745,
      "歐": 1746,
      "歡": 1747,
      "止": 1748,
      "正": 1749,
      "步": 1750,
      "武": 1751,
      "歩": 1752,
      "歳": 1753,
      "歷": 1754,
      "死": 1755,
      "殖": 1756,
      "殺": 1757,
      "殻": 1758,
      "母": 1759,
      "毎": 1760,
      "毒": 1761,
      "毛": 1762,
      "氏": 1763,
      "気": 1764,
      "氣": 1765,
      "水": 1766,
      "氷": 1767,
      "永": 1768,
      "求": 1769,
      "汉": 1770,
      "江": 1771,
      "沙": 1772,
      "沢": 1773,
      "河": 1774,
      "治": 1775,
      "泉": 1776,
      "法": 1777,
      "波": 1778,
      "泣": 1779,
      "泰": 1780,
      "洋": 1781,
      "洛": 1782,
      "洞": 1783,
      "洲": 1784,
      "活": 1785,
      "派": 1786,
      "流": 1787,
      "浦": 1788,
      "浪": 1789,
      "海": 1790,
      "消": 1791,
      "涼": 1792,
      "淵": 1793,
      "清": 1794,
      "渋": 1795,
      "渣": 1796,
      "温": 1797,
      "港": 1798,
      "湧": 1799,
      "湾": 1800,
      "湿": 1801,
      "溶": 1802,
      "滅": 1803,
      "漢": 1804,
      "漫": 1805,
      "潤": 1806,
      "澤": 1807,
      "澳": 1808,
      "濕": 1809,
      "灣": 1810,
      "火": 1811,
      "灰": 1812,
      "為": 1813,
      "烏": 1814,
      "無": 1815,
      "然": 1816,
      "熙": 1817,
      "熱": 1818,
      "燃": 1819,
      "營": 1820,
      "爭": 1821,
      "爾": 1822,
      "版": 1823,
      "物": 1824,
      "特": 1825,
      "犬": 1826,
      "狂": 1827,
      "狐": 1828,
      "狗": 1829,
      "狩": 1830,
      "狮": 1831,
      "狼": 1832,
      "猫": 1833,
      "獄": 1834,
      "獅": 1835,
      "獣": 1836,
      "獳": 1837,
      "玄": 1838,
      "率": 1839,
      "王": 1840,
      "玩": 1841,
      "玲": 1842,
      "現": 1843,
      "球": 1844,
      "理": 1845,
      "琳": 1846,
      "琴": 1847,
      "瑞": 1848,
      "瓦": 1849,
      "瓶": 1850,
      "生": 1851,
      "産": 1852,
      "用": 1853,
      "田": 1854,
      "由": 1855,
      "甲": 1856,
      "男": 1857,
      "町": 1858,
      "画": 1859,
      "界": 1860,
      "畜": 1861,
      "略": 1862,
      "番": 1863,
      "異": 1864,
      "疆": 1865,
      "病": 1866,
      "療": 1867,
      "癖": 1868,
      "発": 1869,
      "登": 1870,
      "發": 1871,
      "白": 1872,
      "百": 1873,
      "的": 1874,
      "皇": 1875,
      "皿": 1876,
      "益": 1877,
      "盗": 1878,
      "盟": 1879,
      "目": 1880,
      "相": 1881,
      "盾": 1882,
      "真": 1883,
      "眼": 1884,
      "矛": 1885,
      "矢": 1886,
      "知": 1887,
      "石": 1888,
      "砂": 1889,
      "研": 1890,
      "砲": 1891,
      "破": 1892,
      "碧": 1893,
      "磁": 1894,
      "磔": 1895,
      "示": 1896,
      "社": 1897,
      "祐": 1898,
      "祖": 1899,
      "神": 1900,
      "禁": 1901,
      "禄": 1902,
      "禅": 1903,
      "福": 1904,
      "禪": 1905,
      "秀": 1906,
      "私": 1907,
      "秋": 1908,
      "科": 1909,
      "稣": 1910,
      "種": 1911,
      "穂": 1912,
      "究": 1913,
      "空": 1914,
      "突": 1915,
      "窓": 1916,
      "窟": 1917,
      "竄": 1918,
      "竜": 1919,
      "章": 1920,
      "竹": 1921,
      "笠": 1922,
      "第": 1923,
      "管": 1924,
      "箱": 1925,
      "篭": 1926,
      "米": 1927,
      "精": 1928,
      "糞": 1929,
      "系": 1930,
      "紀": 1931,
      "約": 1932,
      "紅": 1933,
      "素": 1934,
      "紫": 1935,
      "細": 1936,
      "紳": 1937,
      "紺": 1938,
      "終": 1939,
      "組": 1940,
      "絆": 1941,
      "経": 1942,
      "結": 1943,
      "絵": 1944,
      "絶": 1945,
      "經": 1946,
      "続": 1947,
      "綺": 1948,
      "綾": 1949,
      "綿": 1950,
      "緑": 1951,
      "緒": 1952,
      "線": 1953,
      "編": 1954,
      "繋": 1955,
      "约": 1956,
      "线": 1957,
      "绘": 1958,
      "绝": 1959,
      "统": 1960,
      "维": 1961,
      "罪": 1962,
      "罰": 1963,
      "羅": 1964,
      "羊": 1965,
      "羌": 1966,
      "美": 1967,
      "義": 1968,
      "羲": 1969,
      "羽": 1970,
      "考": 1971,
      "者": 1972,
      "耳": 1973,
      "耶": 1974,
      "联": 1975,
      "聖": 1976,
      "肖": 1977,
      "肭": 1978,
      "育": 1979,
      "胞": 1980,
      "胡": 1981,
      "能": 1982,
      "腕": 1983,
      "膃": 1984,
      "膏": 1985,
      "自": 1986,
      "臬": 1987,
      "臺": 1988,
      "與": 1989,
      "舎": 1990,
      "舞": 1991,
      "航": 1992,
      "艦": 1993,
      "良": 1994,
      "色": 1995,
      "花": 1996,
      "芳": 1997,
      "芸": 1998,
      "苏": 1999,
      "苗": 2000,
      "若": 2001,
      "英": 2002,
      "茎": 2003,
      "茜": 2004,
      "草": 2005,
      "荒": 2006,
      "莫": 2007,
      "菓": 2008,
      "菖": 2009,
      "菜": 2010,
      "華": 2011,
      "萌": 2012,
      "萬": 2013,
      "葉": 2014,
      "葎": 2015,
      "葛": 2016,
      "葬": 2017,
      "葵": 2018,
      "蒙": 2019,
      "蒲": 2020,
      "蓮": 2021,
      "蔔": 2022,
      "蔵": 2023,
      "薙": 2024,
      "薬": 2025,
      "藍": 2026,
      "藤": 2027,
      "藩": 2028,
      "蘭": 2029,
      "蘿": 2030,
      "虚": 2031,
      "虫": 2032,
      "虹": 2033,
      "蛆": 2034,
      "蛊": 2035,
      "蝶": 2036,
      "蟲": 2037,
      "蠱": 2038,
      "蠻": 2039,
      "血": 2040,
      "行": 2041,
      "術": 2042,
      "街": 2043,
      "衣": 2044,
      "表": 2045,
      "袋": 2046,
      "裁": 2047,
      "裂": 2048,
      "装": 2049,
      "裏": 2050,
      "西": 2051,
      "要": 2052,
      "見": 2053,
      "規": 2054,
      "視": 2055,
      "親": 2056,
      "视": 2057,
      "解": 2058,
      "言": 2059,
      "計": 2060,
      "記": 2061,
      "詠": 2062,
      "試": 2063,
      "詩": 2064,
      "話": 2065,
      "誌": 2066,
      "誓": 2067,
      "誘": 2068,
      "語": 2069,
      "誠": 2070,
      "説": 2071,
      "読": 2072,
      "誰": 2073,
      "談": 2074,
      "論": 2075,
      "譅": 2076,
      "識": 2077,
      "譚": 2078,
      "譜": 2079,
      "识": 2080,
      "试": 2081,
      "诗": 2082,
      "话": 2083,
      "语": 2084,
      "课": 2085,
      "谷": 2086,
      "豆": 2087,
      "豪": 2088,
      "貧": 2089,
      "販": 2090,
      "賀": 2091,
      "賊": 2092,
      "賭": 2093,
      "賴": 2094,
      "賽": 2095,
      "贄": 2096,
      "赤": 2097,
      "走": 2098,
      "超": 2099,
      "趙": 2100,
      "路": 2101,
      "車": 2102,
      "転": 2103,
      "軽": 2104,
      "輔": 2105,
      "輝": 2106,
      "软": 2107,
      "辉": 2108,
      "辛": 2109,
      "辺": 2110,
      "辽": 2111,
      "运": 2112,
      "近": 2113,
      "返": 2114,
      "远": 2115,
      "迪": 2116,
      "迷": 2117,
      "退": 2118,
      "适": 2119,
      "逆": 2120,
      "這": 2121,
      "通": 2122,
      "逝": 2123,
      "造": 2124,
      "連": 2125,
      "進": 2126,
      "遂": 2127,
      "遊": 2128,
      "過": 2129,
      "道": 2130,
      "達": 2131,
      "違": 2132,
      "遠": 2133,
      "適": 2134,
      "邑": 2135,
      "邦": 2136,
      "邪": 2137,
      "郁": 2138,
      "郎": 2139,
      "部": 2140,
      "郷": 2141,
      "释": 2142,
      "釋": 2143,
      "里": 2144,
      "重": 2145,
      "野": 2146,
      "金": 2147,
      "鈴": 2148,
      "鉄": 2149,
      "銀": 2150,
      "銃": 2151,
      "銜": 2152,
      "鋼": 2153,
      "錆": 2154,
      "錬": 2155,
      "録": 2156,
      "鍛": 2157,
      "鏡": 2158,
      "鐄": 2159,
      "铡": 2160,
      "银": 2161,
      "镰": 2162,
      "長": 2163,
      "門": 2164,
      "開": 2165,
      "間": 2166,
      "闇": 2167,
      "闘": 2168,
      "闪": 2169,
      "阿": 2170,
      "陈": 2171,
      "降": 2172,
      "限": 2173,
      "院": 2174,
      "陪": 2175,
      "陰": 2176,
      "険": 2177,
      "陽": 2178,
      "隊": 2179,
      "隼": 2180,
      "雄": 2181,
      "雅": 2182,
      "集": 2183,
      "雞": 2184,
      "雨": 2185,
      "雪": 2186,
      "雲": 2187,
      "零": 2188,
      "雷": 2189,
      "電": 2190,
      "霊": 2191,
      "霖": 2192,
      "霧": 2193,
      "青": 2194,
      "静": 2195,
      "面": 2196,
      "革": 2197,
      "靴": 2198,
      "鞭": 2199,
      "音": 2200,
      "頃": 2201,
      "領": 2202,
      "頭": 2203,
      "題": 2204,
      "顔": 2205,
      "願": 2206,
      "顧": 2207,
      "顶": 2208,
      "風": 2209,
      "食": 2210,
      "飯": 2211,
      "飴": 2212,
      "飽": 2213,
      "養": 2214,
      "館": 2215,
      "饭": 2216,
      "饴": 2217,
      "香": 2218,
      "馬": 2219,
      "駄": 2220,
      "騎": 2221,
      "験": 2222,
      "驢": 2223,
      "马": 2224,
      "高": 2225,
      "鬱": 2226,
      "鬼": 2227,
      "魂": 2228,
      "魄": 2229,
      "魅": 2230,
      "魍": 2231,
      "魎": 2232,
      "魔": 2233,
      "魚": 2234,
      "鮫": 2235,
      "鮮": 2236,
      "鰻": 2237,
      "鳥": 2238,
      "鳳": 2239,
      "鸡": 2240,
      "鹿": 2241,
      "麗": 2242,
      "麻": 2243,
      "黃": 2244,
      "黄": 2245,
      "黎": 2246,
      "黒": 2247,
      "黙": 2248,
      "鼻": 2249,
      "齣": 2250,
      "龍": 2251,
      "龙": 2252,
      "龜": 2253,
      "龟": 2254,
      "ꙁ": 2255,
      "ꙑ": 2256,
      "Ꙗ": 2257,
      "ꙗ": 2258,
      "ꚗ": 2259,
      "강": 2260,
      "국": 2261,
      "김": 2262,
      "나": 2263,
      "남": 2264,
      "녀": 2265,
      "놈": 2266,
      "다": 2267,
      "대": 2268,
      "덤": 2269,
      "라": 2270,
      "란": 2271,
      "리": 2272,
      "릿": 2273,
      "마": 2274,
      "만": 2275,
      "법": 2276,
      "북": 2277,
      "쁜": 2278,
      "사": 2279,
      "상": 2280,
      "생": 2281,
      "소": 2282,
      "솔": 2283,
      "스": 2284,
      "승": 2285,
      "시": 2286,
      "신": 2287,
      "아": 2288,
      "업": 2289,
      "여": 2290,
      "영": 2291,
      "온": 2292,
      "왜": 2293,
      "요": 2294,
      "유": 2295,
      "은": 2296,
      "의": 2297,
      "이": 2298,
      "일": 2299,
      "임": 2300,
      "잇": 2301,
      "자": 2302,
      "장": 2303,
      "조": 2304,
      "좋": 2305,
      "중": 2306,
      "진": 2307,
      "칭": 2308,
      "케": 2309,
      "크": 2310,
      "킹": 2311,
      "타": 2312,
      "팝": 2313,
      "팬": 2314,
      "펌": 2315,
      "프": 2316,
      "한": 2317,
      "현": 2318,
      "화": 2319,
      "희": 2320,
      "": 2321,
      "ﷺ": 2322,
      "️": 2323,
      "﻿": 2324,
      "！": 2325,
      "％": 2326,
      "（": 2327,
      "）": 2328,
      "，": 2329,
      "／": 2330,
      "０": 2331,
      "３": 2332,
      "４": 2333,
      "５": 2334,
      "７": 2335,
      "８": 2336,
      "：": 2337,
      "＜": 2338,
      "？": 2339,
      "Ａ": 2340,
      "Ｃ": 2341,
      "Ｇ": 2342,
      "Ｈ": 2343,
      "Ｌ": 2344,
      "Ｏ": 2345,
      "Ｓ": 2346,
      "Ｔ": 2347,
      "Ｖ": 2348,
      "Ｙ": 2349,
      "Ｚ": 2350,
      "＼": 2351,
      "＿": 2352,
      "｀": 2353,
      "｜": 2354,
      "～": 2355,
      "｡": 2356,
      "･": 2357,
      "ﾉ": 2358,
      "ﾟ": 2359,
      "￣": 2360,
      "￼": 2361,
      "�": 2362,
      "𐌲": 2363,
      "𐌿": 2364,
      "𐍄": 2365,
      "𒂆": 2366,
      "𒄑": 2367,
      "𒈦": 2368,
      "𝐀": 2369,
      "𝐂": 2370,
      "𝐄": 2371,
      "𝐇": 2372,
      "𝐋": 2373,
      "𝐌": 2374,
      "𝐍": 2375,
      "𝐏": 2376,
      "𝐑": 2377,
      "𝐒": 2378,
      "𝐖": 2379,
      "𝔊": 2380,
      "𝔥": 2381,
      "𝔬": 2382,
      "𝔱": 2383,
      "𝕏": 2384,
      "𝕱": 2385,
      "𝕵": 2386,
      "𝖊": 2387,
      "𝖋": 2388,
      "𝖎": 2389,
      "𝖑": 2390,
      "𝖔": 2391,
      "𝖗": 2392,
      "𝖘": 2393,
      "𝖙": 2394,
      "𝖟": 2395,
      "🇸": 2396,
      "🇺": 2397,
      "🌈": 2398,
      "🌎": 2399,
      "🎧": 2400,
      "🎨": 2401,
      "🏻": 2402,
      "👉": 2403,
      "👌": 2404,
      "💕": 2405,
      "💪": 2406,
      "🖖": 2407,
      "😀": 2408,
      "😁": 2409,
      "😂": 2410,
      "😉": 2411,
      "😊": 2412,
      "😐": 2413,
      "😒": 2414,
      "🜁": 2415,
      "🟠": 2416,
      "🤔": 2417,
      "🤡": 2418,
      "🤣": 2419,
      "🤭": 2420,
      "🤷": 2421,
      "🧵": 2422,
      "𡨸": 2423,
      "𣇟": 2424,
      "𣋀": 2425,
      " п": 2426,
      " с": 2427,
      " в": 2428,
      "то": 2429,
      " н": 2430,
      " и": 2431,
      "но": 2432,
      "ра": 2433,
      "ст": 2434,
      "ро": 2435,
      "ко": 2436,
      "ен": 2437,
      " о": 2438,
      "ли": 2439,
      " по": 2440,
      "го": 2441,
      "ре": 2442,
      "ка": 2443,
      " д": 2444,
      "ет": 2445,
      "ль": 2446,
      "ны": 2447,
      "ва": 2448,
      " на": 2449,
      "ри": 2450,
      "ни": 2451,
      "та": 2452,
      "ло": 2453,
      " м": 2454,
      " б": 2455,
      "на": 2456,
      "ла": 2457,
      "ть": 2458,
      " не": 2459,
      "во": 2460,
      "ки": 2461,
      "\r\n": 2462,
      "те": 2463,
      "за": 2464,
      "ся": 2465,
      " ч": 2466,
      "ер": 2467,
      "да": 2468,
      "ле": 2469,
      "ти": 2470,
      " ко": 2471,
      " у": 2472,
      "ми": 2473,
      "ени": 2474,
      " а": 2475,
      " за": 2476,
      "ру": 2477,
      "ем": 2478,
      "ви": 2479,
      "ди": 2480,
      " про": 2481,
      "ля": 2482,
      "же": 2483,
      " к": 2484,
      "ес": 2485,
      " •": 2486,
      " ра": 2487,
      " э": 2488,
      " ка": 2489,
      "де": 2490,
      "ма": 2491,
      " что": 2492,
      "мо": 2493,
      " со": 2494,
      "по": 2495,
      " то": 2496,
      "ры": 2497,
      "до": 2498,
      " от": 2499,
      "чи": 2500,
      "бо": 2501,
      "ест": 2502,
      "хо": 2503,
      "не": 2504,
      " при": 2505,
      " во": 2506,
      " г": 2507,
      "ци": 2508,
      "ча": 2509,
      " до": 2510,
      " бы": 2511,
      " (": 2512,
      " «": 2513,
      " В": 2514,
      "со": 2515,
      " та": 2516,
      " е": 2517,
      " из": 2518,
      " П": 2519,
      " мо": 2520,
      "се": 2521,
      "ве": 2522,
      " т": 2523,
      " С": 2524,
      " го": 2525,
      " вы": 2526,
      "ста": 2527,
      "ши": 2528,
      "сто": 2529,
      "ный": 2530,
      "сь": 2531,
      "ют": 2532,
      "жи": 2533,
      "ей": 2534,
      " об": 2535,
      "си": 2536,
      "ну": 2537,
      " это": 2538,
      "сти": 2539,
      " К": 2540,
      "лу": 2541,
      "ку": 2542,
      "льно": 2543,
      "па": 2544,
      "ги": 2545,
      "га": 2546,
      "ме": 2547,
      " ф": 2548,
      "лю": 2549,
      "ные": 2550,
      "ду": 2551,
      " но": 2552,
      "ных": 2553,
      "вы": 2554,
      "щи": 2555,
      "ется": 2556,
      " бо": 2557,
      "му": 2558,
      "ной": 2559,
      " кото": 2560,
      "пи": 2561,
      " Н": 2562,
      "ере": 2563,
      " те": 2564,
      " з": 2565,
      "ско": 2566,
      " раз": 2567,
      " ре": 2568,
      " как": 2569,
      "са": 2570,
      "мен": 2571,
      " са": 2572,
      "ения": 2573,
      "би": 2574,
      " А": 2575,
      "ного": 2576,
      "ты": 2577,
      "чес": 2578,
      "ски": 2579,
      "сть": 2580,
      " М": 2581,
      " пре": 2582,
      "жа": 2583,
      "ше": 2584,
      " ма": 2585,
      " да": 2586,
      " Т": 2587,
      " Д": 2588,
      "ря": 2589,
      " все": 2590,
      " ста": 2591,
      "ня": 2592,
      "зо": 2593,
      " сво": 2594,
      " ни": 2595,
      "ту": 2596,
      " под": 2597,
      " О": 2598,
      " И": 2599,
      "ву": 2600,
      "пе": 2601,
      "бы": 2602,
      "сле": 2603,
      "ная": 2604,
      " же": 2605,
      " так": 2606,
      "мы": 2607,
      " Б": 2608,
      "ение": 2609,
      " де": 2610,
      " я": 2611,
      " Р": 2612,
      "вать": 2613,
      "вен": 2614,
      "ным": 2615,
      "зы": 2616,
      "ба": 2617,
      "ще": 2618,
      "вля": 2619,
      " ли": 2620,
      " се": 2621,
      "зи": 2622,
      " Г": 2623,
      "жно": 2624,
      " которы": 2625,
      " си": 2626,
      " его": 2627,
      " ст": 2628,
      "ша": 2629,
      "бе": 2630,
      "лен": 2631,
      "ды": 2632,
      " для": 2633,
      "це": 2634,
      "ак": 2635,
      "ров": 2636,
      " По": 2637,
      " лю": 2638,
      "лько": 2639,
      "ков": 2640,
      "кой": 2641,
      "гда": 2642,
      "чески": 2643,
      "пу": 2644,
      " па": 2645,
      " ми": 2646,
      "нов": 2647,
      "лся": 2648,
      "ке": 2649,
      "вер": 2650,
      " хо": 2651,
      "об": 2652,
      " пере": 2653,
      " 2": 2654,
      "ца": 2655,
      "чно": 2656,
      "ска": 2657,
      "лы": 2658,
      "ан": 2659,
      " ви": 2660,
      "су": 2661,
      "вани": 2662,
      "тся": 2663,
      "мер": 2664,
      " х": 2665,
      " иг": 2666,
      " он": 2667,
      "тель": 2668,
      "ться": 2669,
      " З": 2670,
      " 1": 2671,
      "ень": 2672,
      "ран": 2673,
      " вс": 2674,
      " ис": 2675,
      "че": 2676,
      " ро": 2677,
      " од": 2678,
      "ор": 2679,
      "ющи": 2680,
      " бу": 2681,
      "про": 2682,
      " кон": 2683,
      " вре": 2684,
      "фи": 2685,
      " или": 2686,
      "мя": 2687,
      " Л": 2688,
      "зу": 2689,
      " ве": 2690,
      " су": 2691,
      " ин": 2692,
      "ное": 2693,
      " дру": 2694,
      " пер": 2695,
      "ство": 2696,
      "ции": 2697,
      "вет": 2698,
      "гу": 2699,
      "лись": 2700,
      "ща": 2701,
      " —": 2702,
      "ном": 2703,
      " бе": 2704,
      " рас": 2705,
      "тов": 2706,
      ").": 2707,
      "он": 2708,
      " жи": 2709,
      " ме": 2710,
      "тельно": 2711,
      " ча": 2712,
      "ются": 2713,
      " пра": 2714,
      "ком": 2715,
      " после": 2716,
      " че": 2717,
      "ром": 2718,
      "лет": 2719,
      "тив": 2720,
      "ствен": 2721,
      " ш": 2722,
      "жет": 2723,
      " пред": 2724,
      "-то": 2725,
      "вши": 2726,
      "сси": 2727,
      "ха": 2728,
      "лове": 2729,
      " боль": 2730,
      "том": 2731,
      " 20": 2732,
      "»,": 2733,
      " сто": 2734,
      "ную": 2735,
      "ходи": 2736,
      " их": 2737,
      "ар": 2738,
      "лось": 2739,
      "каза": 2740,
      "te": 2741,
      "nd": 2742,
      "жен": 2743,
      " только": 2744,
      " ру": 2745,
      "рой": 2746,
      "ему": 2747,
      "ят": 2748,
      "».": 2749,
      "),": 2750,
      "пра": 2751,
      " ку": 2752,
      "из": 2753,
      "вой": 2754,
      " само": 2755,
      "гра": 2756,
      "зна": 2757,
      "сы": 2758,
      "сту": 2759,
      " ва": 2760,
      " воз": 2761,
      "чест": 2762,
      " было": 2763,
      " был": 2764,
      " На": 2765,
      "дь": 2766,
      "рова": 2767,
      " му": 2768,
      "зыва": 2769,
      "ность": 2770,
      " Е": 2771,
      "есть": 2772,
      "нима": 2773,
      " Э": 2774,
      "тер": 2775,
      "ными": 2776,
      "ния": 2777,
      "кра": 2778,
      "щест": 2779,
      "бу": 2780,
      "лей": 2781,
      " Ч": 2782,
      "вест": 2783,
      " зна": 2784,
      "при": 2785,
      " У": 2786,
      " оч": 2787,
      " даже": 2788,
      "тя": 2789,
      "лась": 2790,
      "стоя": 2791,
      " пу": 2792,
      "of": 2793,
      "пы": 2794,
      "вя": 2795,
      "ние": 2796,
      " пи": 2797,
      "ский": 2798,
      "лее": 2799,
      " стра": 2800,
      " ба": 2801,
      " Х": 2802,
      " слу": 2803,
      " фи": 2804,
      "дет": 2805,
      " полу": 2806,
      "стви": 2807,
      "ён": 2808,
      "если": 2809,
      " они": 2810,
      "нет": 2811,
      "ция": 2812,
      "ства": 2813,
      " можно": 2814,
      " Ко": 2815,
      "род": 2816,
      " уже": 2817,
      " всё": 2818,
      " время": 2819,
      " оста": 2820,
      "хи": 2821,
      " есть": 2822,
      "ности": 2823,
      "вто": 2824,
      "дин": 2825,
      " Ф": 2826,
      "шь": 2827,
      " ком": 2828,
      " челове": 2829,
      " гла": 2830,
      " ос": 2831,
      "пре": 2832,
      " ту": 2833,
      "ёт": 2834,
      "пер": 2835,
      " пла": 2836,
      "цен": 2837,
      " если": 2838,
      " нача": 2839,
      "ника": 2840,
      " может": 2841,
      "ской": 2842,
      "зда": 2843,
      "щё": 2844,
      " свои": 2845,
      "пол": 2846,
      "ин": 2847,
      " просто": 2848,
      " сло": 2849,
      "рии": 2850,
      "соб": 2851,
      "дер": 2852,
      "вает": 2853,
      " того": 2854,
      " ле": 2855,
      "цы": 2856,
      "ек": 2857,
      " которые": 2858,
      "ман": 2859,
      " Но": 2860,
      "кого": 2861,
      "end": 2862,
      " им": 2863,
      "кры": 2864,
      "ит": 2865,
      " пол": 2866,
      "ден": 2867,
      "ник": 2868,
      " чтобы": 2869,
      "ис": 2870,
      "дя": 2871,
      " года": 2872,
      " который": 2873,
      " ж": 2874,
      "xt": 2875,
      " <": 2876,
      " Во": 2877,
      " также": 2878,
      "text": 2879,
      " Ро": 2880,
      "|>": 2881,
      "oftext": 2882,
      "endoftext": 2883,
      " <|": 2884,
      " когда": 2885,
      "вно": 2886,
      "бя": 2887,
      "дей": 2888,
      " вер": 2889,
      " где": 2890,
      "ге": 2891,
      " рабо": 2892,
      "ём": 2893,
      " таки": 2894,
      "00": 2895,
      " чем": 2896,
      " дол": 2897,
      " ещё": 2898,
      "вая": 2899,
      " ге": 2900,
      "вые": 2901,
      " явля": 2902,
      "ления": 2903,
      "поль": 2904,
      "нь": 2905,
      "ней": 2906,
      "er": 2907,
      "ально": 2908,
      " обра": 2909,
      "ского": 2910,
      " ло": 2911,
      "тому": 2912,
      "ене": 2913,
      "клю": 2914,
      "вых": 2915,
      "аль": 2916,
      " спо": 2917,
      "чита": 2918,
      "стро": 2919,
      "стре": 2920,
      "сты": 2921,
      "По": 2922,
      "ских": 2923,
      "жда": 2924,
      " це": 2925,
      " том": 2926,
      " были": 2927,
      " За": 2928,
      " без": 2929,
      " Ка": 2930,
      " очень": 2931,
      "вый": 2932,
      "ские": 2933,
      "есь": 2934,
      " Ма": 2935,
      "вали": 2936,
      "лом": 2937,
      " более": 2938,
      "мот": 2939,
      " ар": 2940,
      "торы": 2941,
      "нако": 2942,
      " име": 2943,
      " Не": 2944,
      " ну": 2945,
      "шо": 2946,
      "спе": 2947,
      "дно": 2948,
      "дар": 2949,
      "in": 2950,
      " эти": 2951,
      " созда": 2952,
      " S": 2953,
      " ди": 2954,
      "ев": 2955,
      "ками": 2956,
      " чу": 2957,
      " сра": 2958,
      "ети": 2959,
      "вания": 2960,
      "кон": 2961,
      "ена": 2962,
      "емо": 2963,
      " исполь": 2964,
      " тре": 2965,
      "кая": 2966,
      "бой": 2967,
      "ении": 2968,
      "нее": 2969,
      " 19": 2970,
      "лов": 2971,
      " лу": 2972,
      " кра": 2973,
      " этом": 2974,
      " вой": 2975,
      " ду": 2976,
      "дела": 2977,
      "тически": 2978,
      " авто": 2979,
      "стра": 2980,
      "нии": 2981,
      " ки": 2982,
      "руп": 2983,
      "ью": 2984,
      " лет": 2985,
      " этого": 2986,
      " поя": 2987,
      "ред": 2988,
      "ван": 2989,
      " ты": 2990,
      "дов": 2991,
      " случа": 2992,
      "мени": 2993,
      "вание": 2994,
      "кто": 2995,
      "енно": 2996,
      "рия": 2997,
      "ёр": 2998,
      " тем": 2999,
      "сов": 3000,
      "менно": 3001,
      " была": 3002,
      "бра": 3003,
      "она": 3004,
      "логи": 3005,
      "on": 3006,
      " жиз": 3007,
      "жд": 3008,
      "ставля": 3009,
      "сли": 3010,
      "вал": 3011,
      "вед": 3012,
      "бли": 3013,
      "тра": 3014,
      " ак": 3015,
      "от": 3016,
      " её": 3017,
      "лек": 3018,
      "рь": 3019,
      "ление": 3020,
      "сона": 3021,
      "ений": 3022,
      "дом": 3023,
      "ников": 3024,
      "ству": 3025,
      " сов": 3026,
      " всех": 3027,
      " виде": 3028,
      " дела": 3029,
      " Ш": 3030,
      " сле": 3031,
      " вз": 3032,
      "кое": 3033,
      "вод": 3034,
      " себя": 3035,
      "гла": 3036,
      "рая": 3037,
      "кан": 3038,
      "ar": 3039,
      " она": 3040,
      " исто": 3041,
      " самы": 3042,
      " помо": 3043,
      " мест": 3044,
      "ники": 3045,
      " тех": 3046,
      "нг": 3047,
      "чен": 3048,
      "ская": 3049,
      "ний": 3050,
      " При": 3051,
      "лли": 3052,
      " други": 3053,
      " гра": 3054,
      " Со": 3055,
      "кий": 3056,
      "фор": 3057,
      "ета": 3058,
      " чи": 3059,
      " обы": 3060,
      " 201": 3061,
      " будет": 3062,
      "вра": 3063,
      "три": 3064,
      "тро": 3065,
      "ких": 3066,
      " них": 3067,
      "ск": 3068,
      "ением": 3069,
      "кую": 3070,
      " извест": 3071,
      " неко": 3072,
      " много": 3073,
      " Бо": 3074,
      "рак": 3075,
      " гово": 3076,
      "есто": 3077,
      " кто": 3078,
      "писа": 3079,
      " Так": 3080,
      "чем": 3081,
      " Мо": 3082,
      "ению": 3083,
      " которо": 3084,
      "ут": 3085,
      "чина": 3086,
      " поч": 3087,
      " году": 3088,
      " мно": 3089,
      " является": 3090,
      "телей": 3091,
      "доб": 3092,
      " мы": 3093,
      "можно": 3094,
      "вого": 3095,
      "кие": 3096,
      " прави": 3097,
      " ор": 3098,
      " уби": 3099,
      " вла": 3100,
      " ти": 3101,
      " больше": 3102,
      "ом": 3103,
      "теля": 3104,
      "тере": 3105,
      " свя": 3106,
      " сущест": 3107,
      "ходит": 3108,
      " всего": 3109,
      " быть": 3110,
      " получи": 3111,
      "ход": 3112,
      " пе": 3113,
      "рен": 3114,
      " фа": 3115,
      " объ": 3116,
      " геро": 3117,
      "ющий": 3118,
      " сторо": 3119,
      "an": 3120,
      "рти": 3121,
      " нет": 3122,
      " M": 3123,
      " счита": 3124,
      " поз": 3125,
      "тно": 3126,
      " ско": 3127,
      " дей": 3128,
      "води": 3129,
      " персона": 3130,
      " игра": 3131,
      "той": 3132,
      " там": 3133,
      "На": 3134,
      "сла": 3135,
      "or": 3136,
      "емы": 3137,
      " неско": 3138,
      " Го": 3139,
      " могу": 3140,
      "цию": 3141,
      " каж": 3142,
      " бес": 3143,
      "обще": 3144,
      " соб": 3145,
      " наз": 3146,
      "ляр": 3147,
      " ему": 3148,
      "ья": 3149,
      " произ": 3150,
      " обо": 3151,
      "тели": 3152,
      "ху": 3153,
      "сте": 3154,
      "стави": 3155,
      "пример": 3156,
      " сдела": 3157,
      " него": 3158,
      " ла": 3159,
      " 3": 3160,
      " T": 3161,
      " один": 3162,
      "вают": 3163,
      "риа": 3164,
      " Я": 3165,
      " Росси": 3166,
      "кла": 3167,
      "тор": 3168,
      " Та": 3169,
      "нови": 3170,
      " P": 3171,
      "мина": 3172,
      " себе": 3173,
      " D": 3174,
      " Ра": 3175,
      "шей": 3176,
      "цев": 3177,
      " поли": 3178,
      "личи": 3179,
      "сно": 3180,
      " ху": 3181,
      "фа": 3182,
      " Ж": 3183,
      "ющих": 3184,
      "лаго": 3185,
      " против": 3186,
      "раз": 3187,
      "вается": 3188,
      "чу": 3189,
      "чь": 3190,
      "ющие": 3191,
      " тро": 3192,
      "чество": 3193,
      "щего": 3194,
      " фо": 3195,
      " Са": 3196,
      "что": 3197,
      " чего": 3198,
      "дол": 3199,
      " га": 3200,
      " послед": 3201,
      " A": 3202,
      "щая": 3203,
      "льный": 3204,
      "ваться": 3205,
      "ступ": 3206,
      "рода": 3207,
      "цу": 3208,
      "лё": 3209,
      "пла": 3210,
      "жения": 3211,
      " уда": 3212,
      " людей": 3213,
      " голо": 3214,
      "ках": 3215,
      " попу": 3216,
      "став": 3217,
      "вший": 3218,
      "казыва": 3219,
      "мест": 3220,
      "нд": 3221,
      "ружи": 3222,
      "at": 3223,
      "ез": 3224,
      " Да": 3225,
      "жение": 3226,
      "рт": 3227,
      "нк": 3228,
      " сер": 3229,
      "тия": 3230,
      " использо": 3231,
      " То": 3232,
      " пос": 3233,
      " отно": 3234,
      " C": 3235,
      "стя": 3236,
      "гов": 3237,
      "вым": 3238,
      "чего": 3239,
      "его": 3240,
      " тер": 3241,
      " вообще": 3242,
      " ха": 3243,
      "чки": 3244,
      "льные": 3245,
      " \r\n": 3246,
      "рабо": 3247,
      "щей": 3248,
      " вся": 3249,
      "жду": 3250,
      " чере": 3251,
      " буду": 3252,
      "фо": 3253,
      " хоро": 3254,
      " игро": 3255,
      " глав": 3256,
      " вос": 3257,
      " этой": 3258,
      " друго": 3259,
      "рей": 3260,
      "шего": 3261,
      "нный": 3262,
      "ностью": 3263,
      " еще": 3264,
      "he": 3265,
      "шая": 3266,
      " которых": 3267,
      "цо": 3268,
      " фор": 3269,
      " собствен": 3270,
      " спе": 3271,
      "воз": 3272,
      " ша": 3273,
      " тра": 3274,
      "реди": 3275,
      " пы": 3276,
      "al": 3277,
      "этому": 3278,
      "йти": 3279,
      "рит": 3280,
      " способ": 3281,
      " эк": 3282,
      " над": 3283,
      " могут": 3284,
      " Про": 3285,
      " именно": 3286,
      "бира": 3287,
      " день": 3288,
      "шка": 3289,
      " поло": 3290,
      " игры": 3291,
      " филь": 3292,
      "шу": 3293,
      " I": 3294,
      "тре": 3295,
      "прав": 3296,
      " коро": 3297,
      " действи": 3298,
      "зе": 3299,
      " стал": 3300,
      "льта": 3301,
      "кре": 3302,
      " кру": 3303,
      "вое": 3304,
      "чные": 3305,
      " которая": 3306,
      "сло": 3307,
      "ять": 3308,
      " основ": 3309,
      " несколько": 3310,
      "вор": 3311,
      " некоторы": 3312,
      " луч": 3313,
      " момен": 3314,
      "кру": 3315,
      " пло": 3316,
      " весь": 3317,
      "пера": 3318,
      " Од": 3319,
      " B": 3320,
      "шки": 3321,
      " кри": 3322,
      " работа": 3323,
      "es": 3324,
      " кла": 3325,
      "мери": 3326,
      "шен": 3327,
      "льных": 3328,
      "en": 3329,
      " цен": 3330,
      "жу": 3331,
      " своей": 3332,
      " вра": 3333,
      "чный": 3334,
      "ита": 3335,
      "щий": 3336,
      " рус": 3337,
      " тоже": 3338,
      " Ми": 3339,
      " больши": 3340,
      " реши": 3341,
      " лишь": 3342,
      "чения": 3343,
      " ю": 3344,
      " этот": 3345,
      " жен": 3346,
      " стать": 3347,
      " многи": 3348,
      " оказа": 3349,
      "стью": 3350,
      "щее": 3351,
      "льной": 3352,
      "тан": 3353,
      "пло": 3354,
      "ческий": 3355,
      " вот": 3356,
      "дел": 3357,
      "нуть": 3358,
      " возможно": 3359,
      " тот": 3360,
      "ким": 3361,
      "..": 3362,
      " Это": 3363,
      " груп": 3364,
      "цион": 3365,
      " проис": 3366,
      " жа": 3367,
      "сс": 3368,
      "ним": 3369,
      "али": 3370,
      "роде": 3371,
      " через": 3372,
      " свою": 3373,
      "бле": 3374,
      " вне": 3375,
      "ряд": 3376,
      " осо": 3377,
      " сам": 3378,
      "гля": 3379,
      " Ц": 3380,
      " встре": 3381,
      " уча": 3382,
      " интер": 3383,
      "рован": 3384,
      " G": 3385,
      " начина": 3386,
      " вто": 3387,
      " До": 3388,
      "ур": 3389,
      "лез": 3390,
      " коли": 3391,
      " мен": 3392,
      " успе": 3393,
      " пор": 3394,
      "бор": 3395,
      " уни": 3396,
      "спо": 3397,
      "чка": 3398,
      " поня": 3399,
      " тру": 3400,
      "ou": 3401,
      " дет": 3402,
      "ровать": 3403,
      " люди": 3404,
      " человек": 3405,
      " смер": 3406,
      " мас": 3407,
      " ци": 3408,
      " ог": 3409,
      " называ": 3410,
      " между": 3411,
      "чных": 3412,
      "еты": 3413,
      "сом": 3414,
      " потом": 3415,
      "пас": 3416,
      "нен": 3417,
      "бро": 3418,
      "тен": 3419,
      " R": 3420,
      " кар": 3421,
      " жизни": 3422,
      " хотя": 3423,
      " образо": 3424,
      " благо": 3425,
      " 200": 3426,
      "стов": 3427,
      "ском": 3428,
      " фак": 3429,
      " пыта": 3430,
      " люби": 3431,
      "ёл": 3432,
      "еры": 3433,
      "нно": 3434,
      " стали": 3435,
      "тки": 3436,
      "роме": 3437,
      "ческой": 3438,
      " шко": 3439,
      " качест": 3440,
      " Си": 3441,
      "ема": 3442,
      "лага": 3443,
      " мене": 3444,
      "зульта": 3445,
      "вую": 3446,
      " сю": 3447,
      " надо": 3448,
      " кос": 3449,
      " популяр": 3450,
      " обла": 3451,
      "вом": 3452,
      " попа": 3453,
      "щен": 3454,
      "стей": 3455,
      "ган": 3456,
      " интере": 3457,
      " которой": 3458,
      " поль": 3459,
      " сист": 3460,
      " бра": 3461,
      " Ве": 3462,
      "рий": 3463,
      "судар": 3464,
      " своих": 3465,
      " видео": 3466,
      " упо": 3467,
      " дра": 3468,
      "ген": 3469,
      "ерт": 3470,
      "форма": 3471,
      "фици": 3472,
      "ческие": 3473,
      " тут": 3474,
      " t": 3475,
      " пока": 3476,
      "гани": 3477,
      " F": 3478,
      "вро": 3479,
      " 4": 3480,
      " После": 3481,
      " W": 3482,
      "вле": 3483,
      " три": 3484,
      "рами": 3485,
      "is": 3486,
      "зя": 3487,
      " сказа": 3488,
      " пря": 3489,
      "хва": 3490,
      "зм": 3491,
      " теле": 3492,
      "нова": 3493,
      "нача": 3494,
      " Хо": 3495,
      " два": 3496,
      " потому": 3497,
      " любо": 3498,
      "чной": 3499,
      " появи": 3500,
      "вольно": 3501,
      "мента": 3502,
      " менее": 3503,
      "лия": 3504,
      " кни": 3505,
      "лой": 3506,
      "обра": 3507,
      " мир": 3508,
      "вших": 3509,
      " результа": 3510,
      " очере": 3511,
      "стран": 3512,
      "le": 3513,
      "шения": 3514,
      "сут": 3515,
      "ic": 3516,
      " России": 3517,
      "рон": 3518,
      " Однако": 3519,
      "щем": 3520,
      " ги": 3521,
      "мой": 3522,
      " свой": 3523,
      "жей": 3524,
      " ад": 3525,
      " побе": 3526,
      " Па": 3527,
      " Ва": 3528,
      " следу": 3529,
      "дой": 3530,
      "re": 3531,
      " нем": 3532,
      " -": 3533,
      " одно": 3534,
      " особ": 3535,
      "нечно": 3536,
      "лан": 3537,
      "ссий": 3538,
      " либо": 3539,
      "Не": 3540,
      "лин": 3541,
      " части": 3542,
      "чается": 3543,
      " позво": 3544,
      "кро": 3545,
      "рить": 3546,
      "нец": 3547,
      "перь": 3548,
      "пад": 3549,
      " 9": 3550,
      " сай": 3551,
      " прак": 3552,
      " самом": 3553,
      " Если": 3554,
      "тить": 3555,
      " деле": 3556,
      " 5": 3557,
      " откры": 3558,
      "мет": 3559,
      "ремен": 3560,
      " времен": 3561,
      "дит": 3562,
      " сти": 3563,
      "ших": 3564,
      "ским": 3565,
      " своего": 3566,
      "ях": 3567,
      "ческих": 3568,
      " продол": 3569,
      " прин": 3570,
      " которого": 3571,
      " такой": 3572,
      "тем": 3573,
      " ино": 3574,
      " язы": 3575,
      "них": 3576,
      " например": 3577,
      "дели": 3578,
      "яс": 3579,
      "чает": 3580,
      "прочем": 3581,
      "рую": 3582,
      " иде": 3583,
      "ётся": 3584,
      "дает": 3585,
      " дан": 3586,
      "лем": 3587,
      " времени": 3588,
      " почти": 3589,
      "дать": 3590,
      " случае": 3591,
      "льного": 3592,
      " вопро": 3593,
      " зло": 3594,
      " мог": 3595,
      " часть": 3596,
      " Ю": 3597,
      "ню": 3598,
      "it": 3599,
      " оружи": 3600,
      "ходя": 3601,
      " нео": 3602,
      " би": 3603,
      " государ": 3604,
      " город": 3605,
      " ника": 3606,
      " всегда": 3607,
      "щу": 3608,
      "as": 3609,
      " ничего": 3610,
      "вшие": 3611,
      "правля": 3612,
      " высо": 3613,
      " ради": 3614,
      " дву": 3615,
      "шло": 3616,
      "am": 3617,
      " Ви": 3618,
      "ница": 3619,
      " однако": 3620,
      "нить": 3621,
      "тами": 3622,
      " ц": 3623,
      " собой": 3624,
      "прави": 3625,
      "нами": 3626,
      " Он": 3627,
      " оп": 3628,
      " подоб": 3629,
      " v": 3630,
      " 202": 3631,
      "фф": 3632,
      " настоя": 3633,
      "мов": 3634,
      " всем": 3635,
      "нти": 3636,
      "им": 3637,
      "жать": 3638,
      " ска": 3639,
      " значи": 3640,
      " ибо": 3641,
      "туа": 3642,
      " ана": 3643,
      "или": 3644,
      "лон": 3645,
      " сы": 3646,
      " коман": 3647,
      "льт": 3648,
      "дить": 3649,
      "мом": 3650,
      "ческая": 3651,
      " опре": 3652,
      "лик": 3653,
      "Ко": 3654,
      " Ба": 3655,
      " выпу": 3656,
      " недо": 3657,
      " Им": 3658,
      " жела": 3659,
      "нут": 3660,
      " часто": 3661,
      " сем": 3662,
      " зем": 3663,
      " специ": 3664,
      " выше": 3665,
      " ито": 3666,
      " совер": 3667,
      "мерикан": 3668,
      "месте": 3669,
      " ри": 3670,
      "сем": 3671,
      " стро": 3672,
      " ней": 3673,
      "оло": 3674,
      " ее": 3675,
      " Ар": 3676,
      "тиво": 3677,
      " прав": 3678,
      " занима": 3679,
      " верси": 3680,
      "ший": 3681,
      " дви": 3682,
      " год": 3683,
      " От": 3684,
      "ванием": 3685,
      "сса": 3686,
      "чение": 3687,
      " конце": 3688,
      " N": 3689,
      " состоя": 3690,
      " ры": 3691,
      "смот": 3692,
      "нес": 3693,
      " прочи": 3694,
      " сла": 3695,
      "десь": 3696,
      " сами": 3697,
      "кам": 3698,
      " обычно": 3699,
      "риан": 3700,
      " поэтому": 3701,
      " других": 3702,
      "ством": 3703,
      " доста": 3704,
      "!!": 3705,
      " мало": 3706,
      "ждения": 3707,
      " перед": 3708,
      " сооб": 3709,
      "так": 3710,
      " человека": 3711,
      "грам": 3712,
      " стран": 3713,
      "тый": 3714,
      "дро": 3715,
      "фе": 3716,
      "слу": 3717,
      " похо": 3718,
      " пробле": 3719,
      "ций": 3720,
      "ческого": 3721,
      " стре": 3722,
      "ственно": 3723,
      "ступа": 3724,
      "ете": 3725,
      "щие": 3726,
      " пример": 3727,
      " совет": 3728,
      "полне": 3729,
      " бро": 3730,
      " использу": 3731,
      "ян": 3732,
      "ёз": 3733,
      "зма": 3734,
      "дель": 3735,
      " ответ": 3736,
      "om": 3737,
      "  ": 3738,
      " кол": 3739,
      " спи": 3740,
      "ум": 3741,
      " вол": 3742,
      " слова": 3743,
      "венно": 3744,
      " разви": 3745,
      " Как": 3746,
      " непо": 3747,
      " меня": 3748,
      " момент": 3749,
      "нию": 3750,
      " сред": 3751,
      "сит": 3752,
      " тыся": 3753,
      "тери": 3754,
      "ток": 3755,
      " жизнь": 3756,
      " место": 3757,
      "рма": 3758,
      " органи": 3759,
      " смо": 3760,
      "след": 3761,
      "гре": 3762,
      " одной": 3763,
      " Га": 3764,
      " кре": 3765,
      " ши": 3766,
      " H": 3767,
      "нета": 3768,
      " пар": 3769,
      " довольно": 3770,
      "эн": 3771,
      " Из": 3772,
      "краи": 3773,
      "чная": 3774,
      "цес": 3775,
      " Бе": 3776,
      "рию": 3777,
      " Су": 3778,
      "Во": 3779,
      " Ни": 3780,
      " vs": 3781,
      " кор": 3782,
      " Ру": 3783,
      "зова": 3784,
      "стве": 3785,
      " Вы": 3786,
      "хов": 3787,
      " нас": 3788,
      " воен": 3789,
      " попы": 3790,
      "тие": 3791,
      "него": 3792,
      " L": 3793,
      " маши": 3794,
      " какой": 3795,
      " россий": 3796,
      " уничто": 3797,
      "ставляет": 3798,
      " количество": 3799,
      " сюжет": 3800,
      "место": 3801,
      "тин": 3802,
      " сей": 3803,
      " нау": 3804,
      " сли": 3805,
      " реально": 3806,
      " арми": 3807,
      " приня": 3808,
      " демо": 3809,
      " отли": 3810,
      "мети": 3811,
      " Также": 3812,
      "зан": 3813,
      " вполне": 3814,
      " спа": 3815,
      "жить": 3816,
      "щих": 3817,
      "будь": 3818,
      " моло": 3819,
      "ское": 3820,
      " вместе": 3821,
      " помощ": 3822,
      " бли": 3823,
      "бер": 3824,
      " расска": 3825,
      " весьма": 3826,
      "гом": 3827,
      " эта": 3828,
      "дра": 3829,
      "рев": 3830,
      " среди": 3831,
      " тогда": 3832,
      " комп": 3833,
      "чет": 3834,
      "шли": 3835,
      "жо": 3836,
      "ести": 3837,
      " защи": 3838,
      "дии": 3839,
      " компа": 3840,
      " образом": 3841,
      " войны": 3842,
      "чного": 3843,
      " написа": 3844,
      "ствие": 3845,
      "кс": 3846,
      "гово": 3847,
      "точно": 3848,
      "ответ": 3849,
      " постоя": 3850,
      " актив": 3851,
      "шение": 3852,
      " современ": 3853,
      "ун": 3854,
      " чуть": 3855,
      " распро": 3856,
      " кора": 3857,
      "нок": 3858,
      " большо": 3859,
      " нужно": 3860,
      "et": 3861,
      " музы": 3862,
      " имеет": 3863,
      "ква": 3864,
      " бан": 3865,
      "дова": 3866,
      " Ки": 3867,
      " Пу": 3868,
      "чей": 3869,
      "лые": 3870,
      " Лю": 3871,
      " Все": 3872,
      " E": 3873,
      " стороны": 3874,
      " Пер": 3875,
      "лый": 3876,
      " большин": 3877,
      " Что": 3878,
      "За": 3879,
      " теперь": 3880,
      " американ": 3881,
      "ac": 3882,
      "рот": 3883,
      "льная": 3884,
      " уров": 3885,
      " превра": 3886,
      "ниму": 3887,
      "поло": 3888,
      " доро": 3889,
      " насе": 3890,
      " Ну": 3891,
      "рта": 3892,
      "рах": 3893,
      "цией": 3894,
      " такие": 3895,
      " понима": 3896,
      "тых": 3897,
      " ано": 3898,
      " свет": 3899,
      " ним": 3900,
      " проек": 3901,
      "рё": 3902,
      "лиза": 3903,
      " Ме": 3904,
      "нибудь": 3905,
      " харак": 3906,
      "-нибудь": 3907,
      " глаза": 3908,
      "все": 3909,
      " показа": 3910,
      " пес": 3911,
      " итоге": 3912,
      "держи": 3913,
      " даль": 3914,
      "час": 3915,
      "ющая": 3916,
      " зако": 3917,
      "циона": 3918,
      " ведь": 3919,
      " вам": 3920,
      "пили": 3921,
      "нем": 3922,
      " глу": 3923,
      "ил": 3924,
      " собы": 3925,
      " подо": 3926,
      " дело": 3927,
      " тому": 3928,
      " гу": 3929,
      " общест": 3930,
      "бря": 3931,
      "льку": 3932,
      " деву": 3933,
      " эпи": 3934,
      " другой": 3935,
      "яви": 3936,
      " аб": 3937,
      " прои": 3938,
      "тора": 3939,
      " чер": 3940,
      " тол": 3941,
      "кус": 3942,
      "филь": 3943,
      " конечно": 3944,
      "скую": 3945,
      " стоит": 3946,
      "тые": 3947,
      " СШ": 3948,
      "вид": 3949,
      "щения": 3950,
      " муж": 3951,
      " Де": 3952,
      "дый": 3953,
      "еть": 3954,
      " призна": 3955,
      "цов": 3956,
      " качестве": 3957,
      "чё": 3958,
      " лично": 3959,
      "стру": 3960,
      "чку": 3961,
      "гро": 3962,
      "тур": 3963,
      "меня": 3964,
      " полностью": 3965,
      " быстро": 3966,
      " мира": 3967,
      "кси": 3968,
      " Ста": 3969,
      " маги": 3970,
      " самого": 3971,
      "ol": 3972,
      " смы": 3973,
      "тера": 3974,
      " нико": 3975,
      " край": 3976,
      " отличи": 3977,
      " сразу": 3978,
      " Ин": 3979,
      "вала": 3980,
      " женщи": 3981,
      " разрабо": 3982,
      " станови": 3983,
      "лень": 3984,
      " огром": 3985,
      " здесь": 3986,
      "ями": 3987,
      "ходится": 3988,
      "нах": 3989,
      " этих": 3990,
      " неу": 3991,
      " одна": 3992,
      " куль": 3993,
      " лучше": 3994,
      " сту": 3995,
      " Ли": 3996,
      " уста": 3997,
      "рует": 3998,
      "льным": 3999,
      " кана": 4000,
      "того": 4001,
      " зада": 4002,
      " бое": 4003,
      "там": 4004,
      "дёт": 4005,
      " of": 4006,
      "нер": 4007,
      "рио": 4008,
      " нам": 4009,
      " котором": 4010,
      " кли": 4011,
      " ря": 4012,
      " существо": 4013,
      " противо": 4014,
      "вшись": 4015,
      "вести": 4016,
      "шла": 4017,
      "чным": 4018,
      " вроде": 4019,
      "вин": 4020,
      " вариан": 4021,
      "твер": 4022,
      "льное": 4023,
      " аль": 4024,
      " ори": 4025,
      "вари": 4026,
      "При": 4027,
      "тных": 4028,
      " причи": 4029,
      "хра": 4030,
      " стало": 4031,
      " одного": 4032,
      " информа": 4033,
      "мости": 4034,
      " тя": 4035,
      "боль": 4036,
      " дере": 4037,
      "тай": 4038,
      "держа": 4039,
      "тий": 4040,
      "лки": 4041,
      "слен": 4042,
      "ваются": 4043,
      "анта": 4044,
      "рав": 4045,
      " исклю": 4046,
      " вели": 4047,
      " многие": 4048,
      " Ха": 4049,
      "дной": 4050,
      "скольку": 4051,
      " страны": 4052,
      "ником": 4053,
      "ющим": 4054,
      "and": 4055,
      " разли": 4056,
      " бло": 4057,
      " США": 4058,
      " двух": 4059,
      "вар": 4060,
      " X": 4061,
      "лий": 4062,
      " своим": 4063,
      " позволя": 4064,
      " анг": 4065,
      " Ку": 4066,
      "Так": 4067,
      " s": 4068,
      " сме": 4069,
      " необ": 4070,
      " деся": 4071,
      "таки": 4072,
      " пара": 4073,
      "дера": 4074,
      " роди": 4075,
      "динствен": 4076,
      "гина": 4077,
      " писа": 4078,
      "стер": 4079,
      " O": 4080,
      " саб": 4081,
      "ств": 4082,
      "лка": 4083,
      "Ка": 4084,
      "Но": 4085,
      " неза": 4086,
      " куда": 4087,
      " совсем": 4088,
      " сте": 4089,
      "гры": 4090,
      " тор": 4091,
      " мн": 4092,
      " прода": 4093,
      " соответ": 4094,
      "ion": 4095,
      " Те": 4096,
      "чить": 4097,
      " смот": 4098,
      " осно": 4099,
      " сим": 4100,
      " говоря": 4101,
      "щение": 4102,
      "рито": 4103,
      " результате": 4104,
      " друг": 4105,
      " особо": 4106,
      " практически": 4107,
      "нам": 4108,
      "ing": 4109,
      " Кон": 4110,
      " стан": 4111,
      " сот": 4112,
      "пом": 4113,
      " офици": 4114,
      "ow": 4115,
      " вместо": 4116,
      "роят": 4117,
      "помина": 4118,
      "шие": 4119,
      "чая": 4120,
      "СС": 4121,
      "бля": 4122,
      " этим": 4123,
      "us": 4124,
      "рат": 4125,
      "дума": 4126,
      " сериа": 4127,
      " мире": 4128,
      " 8": 4129,
      " пси": 4130,
      "il": 4131,
      "сер": 4132,
      " ск": 4133,
      " отде": 4134,
      "жны": 4135,
      "чать": 4136,
      " города": 4137,
      " норма": 4138,
      "Ра": 4139,
      " доба": 4140,
      " стала": 4141,
      "вшего": 4142,
      "шую": 4143,
      " таких": 4144,
      "реть": 4145,
      "рю": 4146,
      " тран": 4147,
      " Лу": 4148,
      "нять": 4149,
      " програм": 4150,
      "ющего": 4151,
      "ному": 4152,
      " Ла": 4153,
      " некоторые": 4154,
      "лых": 4155,
      " типа": 4156,
      " будут": 4157,
      " особенно": 4158,
      "ad": 4159,
      "пита": 4160,
      " фана": 4161,
      "нки": 4162,
      " режи": 4163,
      " появля": 4164,
      " Се": 4165,
      " хоть": 4166,
      " сделать": 4167,
      " нена": 4168,
      "зов": 4169,
      "лют": 4170,
      "ющей": 4171,
      "ффек": 4172,
      " Импе": 4173,
      " ок": 4174,
      " сол": 4175,
      " игре": 4176,
      "рам": 4177,
      " которое": 4178,
      "el": 4179,
      " основном": 4180,
      "шно": 4181,
      " процес": 4182,
      " Ре": 4183,
      "полни": 4184,
      "зер": 4185,
      " истории": 4186,
      "чества": 4187,
      " полити": 4188,
      " свобо": 4189,
      "дца": 4190,
      "дви": 4191,
      " сильно": 4192,
      "ведения": 4193,
      " другие": 4194,
      "дут": 4195,
      " интерес": 4196,
      " убий": 4197,
      " зави": 4198,
      "гер": 4199,
      "ro": 4200,
      "шем": 4201,
      "блю": 4202,
      "ить": 4203,
      " ситуа": 4204,
      "выми": 4205,
      " выра": 4206,
      " планет": 4207,
      "Про": 4208,
      "писы": 4209,
      " обя": 4210,
      " пода": 4211,
      "тать": 4212,
      "ed": 4213,
      "ter": 4214,
      " никто": 4215,
      "бло": 4216,
      " 6": 4217,
      "деть": 4218,
      " затем": 4219,
      " 199": 4220,
      "грани": 4221,
      " дер": 4222,
      "даря": 4223,
      "фак": 4224,
      " зву": 4225,
      " принци": 4226,
      " узна": 4227,
      "рави": 4228,
      "лле": 4229,
      "яв": 4230,
      "графи": 4231,
      " террито": 4232,
      "ствует": 4233,
      " V": 4234,
      "лла": 4235,
      " гру": 4236,
      "вались": 4237,
      "номи": 4238,
      "лены": 4239,
      "рее": 4240,
      " Ле": 4241,
      " Украи": 4242,
      "шест": 4243,
      "роди": 4244,
      "нологи": 4245,
      " наи": 4246,
      " мень": 4247,
      "ческое": 4248,
      "пон": 4249,
      "чик": 4250,
      " существу": 4251,
      "мини": 4252,
      " представи": 4253,
      " всю": 4254,
      "ленной": 4255,
      "шает": 4256,
      " достаточно": 4257,
      " ужа": 4258,
      "вить": 4259,
      " 10": 4260,
      " хорошо": 4261,
      "еха": 4262,
      " числе": 4263,
      "бре": 4264,
      " невоз": 4265,
      " места": 4266,
      "лл": 4267,
      " лег": 4268,
      "ходят": 4269,
      " мя": 4270,
      " гражда": 4271,
      " серь": 4272,
      " Пи": 4273,
      "ждение": 4274,
      " оказыва": 4275,
      "вался": 4276,
      " согла": 4277,
      " выгля": 4278,
      "ктор": 4279,
      "пей": 4280,
      "ье": 4281,
      " фото": 4282,
      " необходи": 4283,
      " част": 4284,
      "гами": 4285,
      "шёл": 4286,
      " происходит": 4287,
      "ель": 4288,
      "йте": 4289,
      "зиден": 4290,
      "рения": 4291,
      " неиз": 4292,
      " ей": 4293,
      " власти": 4294,
      " запре": 4295,
      "гна": 4296,
      " смерти": 4297,
      " игру": 4298,
      "ясь": 4299,
      "вели": 4300,
      "тей": 4301,
      "теря": 4302,
      "док": 4303,
      "иль": 4304,
      "мая": 4305,
      "20": 4306,
      " становится": 4307,
      "тка": 4308,
      " которую": 4309,
      " \"": 4310,
      " кро": 4311,
      " две": 4312,
      "воль": 4313,
      " каждый": 4314,
      "тах": 4315,
      "шим": 4316,
      " второй": 4317,
      " 7": 4318,
      " мар": 4319,
      " случай": 4320,
      "нием": 4321,
      "ch": 4322,
      " делать": 4323,
      " the": 4324,
      " пиз": 4325,
      "мати": 4326,
      "сить": 4327,
      " жан": 4328,
      "еди": 4329,
      " дома": 4330,
      "тный": 4331,
      "ям": 4332,
      " насто": 4333,
      " мне": 4334,
      "зап": 4335,
      " Бу": 4336,
      " моз": 4337,
      "нул": 4338,
      " являются": 4339,
      " стары": 4340,
      " Ти": 4341,
      "строй": 4342,
      "рд": 4343,
      "Как": 4344,
      " Зем": 4345,
      "щую": 4346,
      "ствии": 4347,
      "стри": 4348,
      " скоро": 4349,
      "шенно": 4350,
      " милли": 4351,
      " вес": 4352,
      " Мар": 4353,
      " самых": 4354,
      " четы": 4355,
      " эту": 4356,
      " быд": 4357,
      "лена": 4358,
      "шком": 4359,
      " отсут": 4360,
      "ешь": 4361,
      "Ма": 4362,
      " Евро": 4363,
      "тельный": 4364,
      " деньги": 4365,
      " Ге": 4366,
      "лён": 4367,
      "шек": 4368,
      " самый": 4369,
      "рин": 4370,
      " право": 4371,
      "тел": 4372,
      " всей": 4373,
      " герои": 4374,
      " оригина": 4375,
      " тек": 4376,
      " уго": 4377,
      " фра": 4378,
      "коло": 4379,
      " вклю": 4380,
      "тая": 4381,
      " ца": 4382,
      " закон": 4383,
      " меч": 4384,
      " иногда": 4385,
      "тные": 4386,
      "которы": 4387,
      " герой": 4388,
      "жает": 4389,
      "лок": 4390,
      " таким": 4391,
      "шее": 4392,
      "ницы": 4393,
      " долго": 4394,
      " Они": 4395,
      "тура": 4396,
      " множе": 4397,
      "ig": 4398,
      " внима": 4399,
      " собира": 4400,
      "дан": 4401,
      " Злове": 4402,
      "льтфиль": 4403,
      " сви": 4404,
      " стране": 4405,
      "виа": 4406,
      "эй": 4407,
      " кого": 4408,
      " захва": 4409,
      "вез": 4410,
      " Му": 4411,
      "верх": 4412,
      "Са": 4413,
      " Город": 4414,
      " начала": 4415,
      " серии": 4416,
      " сейчас": 4417,
      " такое": 4418,
      "До": 4419,
      " окон": 4420,
      "зор": 4421,
      " обе": 4422,
      " руко": 4423,
      " Коро": 4424,
      " прямо": 4425,
      " цель": 4426,
      "дают": 4427,
      "жды": 4428,
      "ступи": 4429,
      "ССР": 4430,
      "000": 4431,
      "зывает": 4432,
      "более": 4433,
      "лая": 4434,
      " уж": 4435,
      "бить": 4436,
      " сцен": 4437,
      "рок": 4438,
      " коло": 4439,
      " древ": 4440,
      " дости": 4441,
      "стан": 4442,
      "жал": 4443,
      "публи": 4444,
      " чис": 4445,
      "-таки": 4446,
      " ква": 4447,
      " прекра": 4448,
      " усло": 4449,
      " кроме": 4450,
      "дко": 4451,
      " равно": 4452,
      "хода": 4453,
      "сили": 4454,
      " Кра": 4455,
      " любой": 4456,
      " мате": 4457,
      "мена": 4458,
      " укра": 4459,
      "цами": 4460,
      "шку": 4461,
      " мощ": 4462,
      "следо": 4463,
      " опера": 4464,
      " Впрочем": 4465,
      " закры": 4466,
      "жде": 4467,
      " учи": 4468,
      " действительно": 4469,
      " разных": 4470,
      " вид": 4471,
      " Ди": 4472,
      " взя": 4473,
      "лами": 4474,
      "никами": 4475,
      "рко": 4476,
      "сё": 4477,
      " Че": 4478,
      " участ": 4479,
      "телем": 4480,
      " правило": 4481,
      "кля": 4482,
      "жден": 4483,
      "рус": 4484,
      "ющее": 4485,
      "дия": 4486,
      "шать": 4487,
      " массо": 4488,
      " тебя": 4489,
      "юрь": 4490,
      "вета": 4491,
      "вре": 4492,
      " бога": 4493,
      " должен": 4494,
      " m": 4495,
      "их": 4496,
      " тради": 4497,
      "енера": 4498,
      "пли": 4499,
      " СССР": 4500,
      "стой": 4501,
      " эффек": 4502,
      " гор": 4503,
      "стом": 4504,
      " пропа": 4505,
      "альный": 4506,
      " K": 4507,
      "кти": 4508,
      " заклю": 4509,
      "рёх": 4510,
      " спу": 4511,
      "жены": 4512,
      " самой": 4513,
      " Вла": 4514,
      "няя": 4515,
      "тефак": 4516,
      "гру": 4517,
      "цей": 4518,
      "пере": 4519,
      " единствен": 4520,
      " круп": 4521,
      "полн": 4522,
      "рое": 4523,
      " некоторых": 4524,
      "хе": 4525,
      " интернет": 4526,
      "oo": 4527,
      " начале": 4528,
      "бан": 4529,
      " первый": 4530,
      " ал": 4531,
      " Ан": 4532,
      " перио": 4533,
      " кры": 4534,
      "гие": 4535,
      "жении": 4536,
      "кова": 4537,
      " Для": 4538,
      " пользова": 4539,
      " своё": 4540,
      " найти": 4541,
      "лиги": 4542,
      "Со": 4543,
      "деля": 4544,
      " друга": 4545,
      "рил": 4546,
      " Алек": 4547,
      " помощью": 4548,
      "тельные": 4549,
      "зации": 4550,
      " публи": 4551,
      " произо": 4552,
      "жит": 4553,
      " предпо": 4554,
      " связи": 4555,
      "явля": 4556,
      " Вели": 4557,
      " ум": 4558,
      " постоянно": 4559,
      "ристи": 4560,
      " уро": 4561,
      " обяза": 4562,
      "вшая": 4563,
      " анти": 4564,
      " дис": 4565,
      " совершенно": 4566,
      "жил": 4567,
      " ново": 4568,
      " общем": 4569,
      " срав": 4570,
      " хи": 4571,
      " самым": 4572,
      "ниме": 4573,
      "!»": 4574,
      " w": 4575,
      "жный": 4576,
      "тельства": 4577,
      "id": 4578,
      "бов": 4579,
      "сур": 4580,
      " персонажа": 4581,
      "рик": 4582,
      "туры": 4583,
      " отличие": 4584,
      "ak": 4585,
      " поскольку": 4586,
      " никогда": 4587,
      " слишком": 4588,
      " одним": 4589,
      "тчи": 4590,
      " миро": 4591,
      "щает": 4592,
      " уме": 4593,
      " види": 4594,
      " Боль": 4595,
      "мах": 4596,
      "гает": 4597,
      "фы": 4598,
      " мета": 4599,
      " которым": 4600,
      " говорит": 4601,
      " оружие": 4602,
      " c": 4603,
      " распростран": 4604,
      " карти": 4605,
      "скими": 4606,
      " сказать": 4607,
      "чёт": 4608,
      "щается": 4609,
      "фес": 4610,
      " треть": 4611,
      " персонаж": 4612,
      " целом": 4613,
      "...": 4614,
      " забы": 4615,
      " внезап": 4616,
      " первой": 4617,
      " b": 4618,
      " космо": 4619,
      " р": 4620,
      " Бы": 4621,
      " меся": 4622,
      " внеш": 4623,
      " народ": 4624,
      "лам": 4625,
      "обре": 4626,
      " чёр": 4627,
      "лета": 4628,
      "лав": 4629,
      "нные": 4630,
      " пои": 4631,
      " автор": 4632,
      " род": 4633,
      "лением": 4634,
      " заня": 4635,
      "гли": 4636,
      " парти": 4637,
      " тво": 4638,
      "нев": 4639,
      "стати": 4640,
      "льзя": 4641,
      "тар": 4642,
      "волю": 4643,
      " фанта": 4644,
      " косми": 4645,
      " преступ": 4646,
      "щим": 4647,
      " пле": 4648,
      " ограни": 4649,
      " дене": 4650,
      "оне": 4651,
      " дума": 4652,
      " возможность": 4653,
      " Ло": 4654,
      "лина": 4655,
      " предло": 4656,
      " решил": 4657,
      " эко": 4658,
      "нос": 4659,
      "дал": 4660,
      " обна": 4661,
      " почему": 4662,
      "шел": 4663,
      "вич": 4664,
      " начали": 4665,
      "бль": 4666,
      "ору": 4667,
      "дка": 4668,
      " жерт": 4669,
      " уви": 4670,
      "лай": 4671,
      " тысяч": 4672,
      " гото": 4673,
      " благодаря": 4674,
      "пой": 4675,
      "купа": 4676,
      " мон": 4677,
      "кло": 4678,
      "рем": 4679,
      " неме": 4680,
      "шеб": 4681,
      " бой": 4682,
      " Ча": 4683,
      "НО": 4684,
      " возвра": 4685,
      " гро": 4686,
      " китай": 4687,
      " плохо": 4688,
      "конец": 4689,
      " такого": 4690,
      "нга": 4691,
      "жных": 4692,
      "вай": 4693,
      " опас": 4694,
      " элек": 4695,
      "ливо": 4696,
      " живо": 4697,
      " собра": 4698,
      " выз": 4699,
      " мет": 4700,
      " фе": 4701,
      " добро": 4702,
      " Моск": 4703,
      "год": 4704,
      "ag": 4705,
      " контро": 4706,
      "чём": 4707,
      " коми": 4708,
      " говно": 4709,
      "Бо": 4710,
      " гов": 4711,
      "чат": 4712,
      "жна": 4713,
      "рос": 4714,
      "вании": 4715,
      "круг": 4716,
      " оконча": 4717,
      "ay": 4718,
      "ены": 4719,
      "ru": 4720,
      " той": 4721,
      " («": 4722,
      " яв": 4723,
      " непри": 4724,
      " относи": 4725,
      " отправи": 4726,
      " люб": 4727,
      "вшийся": 4728,
      " требу": 4729,
      "im": 4730,
      "вало": 4731,
      "мыш": 4732,
      " Поэтому": 4733,
      " f": 4734,
      " давно": 4735,
      "вес": 4736,
      "ксу": 4737,
      " дея": 4738,
      " вин": 4739,
      "числен": 4740,
      "мимо": 4741,
      " физи": 4742,
      "лит": 4743,
      "вок": 4744,
      "стить": 4745,
      " самое": 4746,
      "чер": 4747,
      "дят": 4748,
      "урна": 4749,
      " заме": 4750,
      "образ": 4751,
      " безо": 4752,
      "После": 4753,
      " Пла": 4754,
      "чаются": 4755,
      " использовать": 4756,
      " название": 4757,
      " класси": 4758,
      " верну": 4759,
      "бран": 4760,
      "чек": 4761,
      "жной": 4762,
      " многих": 4763,
      " компью": 4764,
      "дали": 4765,
      "ствия": 4766,
      "альных": 4767,
      "бом": 4768,
      " полно": 4769,
      "зем": 4770,
      " оно": 4771,
      " запи": 4772,
      " соци": 4773,
      " вопрос": 4774,
      "леко": 4775,
      " запу": 4776,
      "естест": 4777,
      "ht": 4778,
      " симво": 4779,
      " времена": 4780,
      " влия": 4781,
      "»)": 4782,
      " крайне": 4783,
      " вас": 4784,
      "мп": 4785,
      " чув": 4786,
      " бом": 4787,
      "зывать": 4788,
      " настолько": 4789,
      "тили": 4790,
      " тебе": 4791,
      "тельной": 4792,
      " восста": 4793,
      "мый": 4794,
      " Кар": 4795,
      " твор": 4796,
      " новый": 4797,
      " копи": 4798,
      " япон": 4799,
      " значит": 4800,
      "мира": 4801,
      "тельных": 4802,
      " поги": 4803,
      " гре": 4804,
      " ау": 4805,
      "лсо": 4806,
      " ан": 4807,
      "рого": 4808,
      "Если": 4809,
      " объяс": 4810,
      "лев": 4811,
      "ологи": 4812,
      " сезо": 4813,
      "част": 4814,
      " пора": 4815,
      "дру": 4816,
      " мультфиль": 4817,
      "пря": 4818,
      " скорее": 4819,
      "дки": 4820,
      " неё": 4821,
      "панк": 4822,
      "метить": 4823,
      "пов": 4824,
      " Син": 4825,
      " месте": 4826,
      " персонажей": 4827,
      "дж": 4828,
      " фу": 4829,
      " тай": 4830,
      " роли": 4831,
      "ot": 4832,
      "тной": 4833,
      "фика": 4834,
      " слово": 4835,
      " услови": 4836,
      "гло": 4837,
      "скоре": 4838,
      " форма": 4839,
      " немного": 4840,
      " свое": 4841,
      " фина": 4842,
      "кор": 4843,
      "жные": 4844,
      " Тем": 4845,
      " комму": 4846,
      "послед": 4847,
      " начинает": 4848,
      " ненави": 4849,
      " пово": 4850,
      " неболь": 4851,
      " силы": 4852,
      "Да": 4853,
      " имя": 4854,
      " убе": 4855,
      " принима": 4856,
      "тива": 4857,
      " президен": 4858,
      "имо": 4859,
      " окру": 4860,
      " знает": 4861,
      " нес": 4862,
      " группы": 4863,
      " характер": 4864,
      "сами": 4865,
      " большой": 4866,
      " работы": 4867,
      " кам": 4868,
      " фору": 4869,
      "19": 4870,
      " снова": 4871,
      " вну": 4872,
      " эль": 4873,
      "os": 4874,
      "оз": 4875,
      " героя": 4876,
      " каждо": 4877,
      " Y": 4878,
      "дами": 4879,
      " объек": 4880,
      "кт": 4881,
      " нельзя": 4882,
      " ны": 4883,
      "рк": 4884,
      " ост": 4885,
      " потеря": 4886,
      " запад": 4887,
      " d": 4888,
      "тым": 4889,
      " евро": 4890,
      " начал": 4891,
      "раба": 4892,
      "бри": 4893,
      " века": 4894,
      " Когда": 4895,
      " артефак": 4896,
      " представля": 4897,
      " мед": 4898,
      " конф": 4899,
      " игр": 4900,
      " солда": 4901,
      "диви": 4902,
      "няется": 4903,
      " чита": 4904,
      "лить": 4905,
      " разме": 4906,
      " названием": 4907,
      " граждан": 4908,
      " тео": 4909,
      "ia": 4910,
      " хва": 4911,
      "Это": 4912,
      "шед": 4913,
      " стар": 4914,
      " ними": 4915,
      " журна": 4916,
      " наблю": 4917,
      " вовсе": 4918,
      " фран": 4919,
      "солют": 4920,
      "руд": 4921,
      " возра": 4922,
      "нных": 4923,
      "зии": 4924,
      "Го": 4925,
      "еру": 4926,
      " крас": 4927,
      "ерма": 4928,
      "стоит": 4929,
      "емый": 4930,
      " спра": 4931,
      "бера": 4932,
      " Пе": 4933,
      " Под": 4934,
      " изобра": 4935,
      "держ": 4936,
      " вокруг": 4937,
      "ческим": 4938,
      "ческую": 4939,
      "делён": 4940,
      "под": 4941,
      " скры": 4942,
      " доступ": 4943,
      "От": 4944,
      " Мак": 4945,
      "твержда": 4946,
      "водит": 4947,
      " Аль": 4948,
      " пару": 4949,
      " Хотя": 4950,
      " эле": 4951,
      " зо": 4952,
      " гей": 4953,
      "каз": 4954,
      " шо": 4955,
      " религи": 4956,
      "сок": 4957,
      " горо": 4958,
      " Дж": 4959,
      " официально": 4960,
      " выс": 4961,
      " драко": 4962,
      "ov": 4963,
      "Мо": 4964,
      " получить": 4965,
      " ию": 4966,
      " бит": 4967,
      "вшей": 4968,
      "вшим": 4969,
      "кими": 4970,
      "мые": 4971,
      " аниме": 4972,
      " /": 4973,
      " наде": 4974,
      "дю": 4975,
      " боя": 4976,
      " наличи": 4977,
      "либо": 4978,
      " перево": 4979,
      "ат": 4980,
      "шный": 4981,
      " кино": 4982,
      " p": 4983,
      "ске": 4984,
      " дальше": 4985,
      " получил": 4986,
      " легко": 4987,
      " версии": 4988,
      " точно": 4989,
      " помощи": 4990,
      " широ": 4991,
      "юз": 4992,
      " тан": 4993,
      " самые": 4994,
      "гой": 4995,
      " описа": 4996,
      " меньше": 4997,
      "мент": 4998,
      " малень": 4999,
      " сих": 5000,
      "чай": 5001,
      "ссо": 5002,
      " производ": 5003,
      " еди": 5004,
      "емон": 5005,
      " золо": 5006,
      "няет": 5007,
      "кола": 5008,
      " имени": 5009,
      "клады": 5010,
      "ur": 5011,
      " очередь": 5012,
      " денег": 5013,
      " съ": 5014,
      "пить": 5015,
      "гать": 5016,
      " здо": 5017,
      "сам": 5018,
      "вли": 5019,
      " новые": 5020,
      " пози": 5021,
      " своими": 5022,
      "хуй": 5023,
      "мотря": 5024,
      " The": 5025,
      " тон": 5026,
      " разные": 5027,
      "Ро": 5028,
      " отправля": 5029,
      "тельство": 5030,
      " мол": 5031,
      " крити": 5032,
      " друз": 5033,
      "которые": 5034,
      "Что": 5035,
      "жествен": 5036,
      " попро": 5037,
      "Также": 5038,
      "гах": 5039,
      " технологи": 5040,
      "лении": 5041,
      " присут": 5042,
      " плю": 5043,
      "скать": 5044,
      " сна": 5045,
      "чают": 5046,
      "Од": 5047,
      "un": 5048,
      "чную": 5049,
      "куда": 5050,
      " полови": 5051,
      " неизвест": 5052,
      "хом": 5053,
      "лии": 5054,
      " армии": 5055,
      " активно": 5056,
      "дные": 5057,
      " ран": 5058,
      " Сер": 5059,
      " Например": 5060,
      " этому": 5061,
      " профес": 5062,
      " мор": 5063,
      " могли": 5064,
      "сон": 5065,
      " разру": 5066,
      " существует": 5067,
      "терна": 5068,
      "мар": 5069,
      "жида": 5070,
      " оказывается": 5071,
      " оди": 5072,
      "мин": 5073,
      " должно": 5074,
      " потре": 5075,
      " искус": 5076,
      "вобо": 5077,
      "чительно": 5078,
      "бий": 5079,
      "телями": 5080,
      "лот": 5081,
      " Об": 5082,
      " U": 5083,
      " ули": 5084,
      " мага": 5085,
      " 15": 5086,
      " Ду": 5087,
      " Кру": 5088,
      "кобы": 5089,
      "шлось": 5090,
      "тил": 5091,
      " несколь": 5092,
      " проду": 5093,
      " Стра": 5094,
      "ститу": 5095,
      " отношения": 5096,
      "вёз": 5097,
      "влека": 5098,
      " абсолют": 5099,
      "дах": 5100,
      "альные": 5101,
      " ды": 5102,
      " Ри": 5103,
      " внезапно": 5104,
      "сков": 5105,
      " силу": 5106,
      "начала": 5107,
      " большинство": 5108,
      " любов": 5109,
      " находится": 5110,
      " РФ": 5111,
      "щён": 5112,
      " разно": 5113,
      "последствии": 5114,
      "зко": 5115,
      " ими": 5116,
      "лого": 5117,
      " истори": 5118,
      " имеют": 5119,
      "лосо": 5120,
      "сей": 5121,
      "ставить": 5122,
      " рекла": 5123,
      " спосо": 5124,
      "льном": 5125,
      "-либо": 5126,
      " пя": 5127,
      "тии": 5128,
      " целью": 5129,
      "нику": 5130,
      " направ": 5131,
      "лог": 5132,
      " ресур": 5133,
      " лул": 5134,
      "степ": 5135,
      "чены": 5136,
      "льную": 5137,
      " J": 5138,
      "ску": 5139,
      " Дра": 5140,
      " измен": 5141,
      " экономи": 5142,
      " сути": 5143,
      " Вот": 5144,
      "ьи": 5145,
      "как": 5146,
      "над": 5147,
      " известно": 5148,
      " детей": 5149,
      " наиболее": 5150,
      "НЕ": 5151,
      "торов": 5152,
      "ствовать": 5153,
      " борь": 5154,
      "сят": 5155,
      " переда": 5156,
      "ющими": 5157,
      "мни": 5158,
      " реали": 5159,
      "есмотря": 5160,
      " временем": 5161,
      "чил": 5162,
      " частности": 5163,
      " оши": 5164,
      "ровал": 5165,
      " представ": 5166,
      " предлага": 5167,
      " решили": 5168,
      " вариант": 5169,
      "смотря": 5170,
      "iv": 5171,
      " разу": 5172,
      " показыва": 5173,
      "моби": 5174,
      " сохра": 5175,
      " реги": 5176,
      "онов": 5177,
      "рои": 5178,
      " примерно": 5179,
      "наче": 5180,
      "вили": 5181,
      "мых": 5182,
      " посе": 5183,
      " напомина": 5184,
      "ent": 5185,
      " обу": 5186,
      " фильм": 5187,
      "руют": 5188,
      " украин": 5189,
      " поряд": 5190,
      " несмотря": 5191,
      "бора": 5192,
      "мир": 5193,
      " англий": 5194,
      " наме": 5195,
      "дил": 5196,
      "лях": 5197,
      " озна": 5198,
      " Кита": 5199,
      "блей": 5200,
      " шу": 5201,
      " практи": 5202,
      " множество": 5203,
      "сил": 5204,
      " 18": 5205,
      " мето": 5206,
      " бесс": 5207,
      "вень": 5208,
      " энер": 5209,
      " Кроме": 5210,
      " зе": 5211,
      " конку": 5212,
      "шта": 5213,
      "ap": 5214,
      " нару": 5215,
      "зован": 5216,
      " Ор": 5217,
      " нема": 5218,
      " должны": 5219,
      " некото": 5220,
      " чет": 5221,
      "цам": 5222,
      "чит": 5223,
      " собственно": 5224,
      " фактически": 5225,
      " выпол": 5226,
      " хуй": 5227,
      " населения": 5228,
      " уны": 5229,
      " меха": 5230,
      " появ": 5231,
      "ленных": 5232,
      " туда": 5233,
      "тешест": 5234,
      "    ": 5235,
      "лк": 5236,
      "мана": 5237,
      " правда": 5238,
      " Зло": 5239,
      " бри": 5240,
      " участи": 5241,
      "стую": 5242,
      " около": 5243,
      "тного": 5244,
      "ента": 5245,
      "дец": 5246,
      " секре": 5247,
      " героев": 5248,
      " мем": 5249,
      " бере": 5250,
      " Пере": 5251,
      "ut": 5252,
      " стри": 5253,
      " ата": 5254,
      " выда": 5255,
      " импе": 5256,
      "лер": 5257,
      "ходить": 5258,
      "струк": 5259,
      "ir": 5260,
      " годы": 5261,
      " изда": 5262,
      " школь": 5263,
      " леген": 5264,
      " исти": 5265,
      " прочих": 5266,
      " оказался": 5267,
      " якобы": 5268,
      " вероят": 5269,
      " руки": 5270,
      " угро": 5271,
      " выяс": 5272,
      "стями": 5273,
      " зато": 5274,
      "мон": 5275,
      " требо": 5276,
      " серьёз": 5277,
      " опы": 5278,
      " поко": 5279,
      " тюрь": 5280,
      " предо": 5281,
      "вут": 5282,
      "кому": 5283,
      " рай": 5284,
      " продолжа": 5285,
      " постро": 5286,
      " всему": 5287,
      "зад": 5288,
      "гуляр": 5289,
      "слав": 5290,
      "рый": 5291,
      "ind": 5292,
      "рать": 5293,
      " Би": 5294,
      "лым": 5295,
      "сю": 5296,
      "дови": 5297,
      " кур": 5298,
      "пози": 5299,
      " следует": 5300,
      " делает": 5301,
      " оте": 5302,
      " уровня": 5303,
      "дром": 5304,
      " образ": 5305,
      " прибы": 5306,
      "нули": 5307,
      " подро": 5308,
      " приз": 5309,
      "Пер": 5310,
      "кса": 5311,
      " новых": 5312,
      " хит": 5313,
      " взгля": 5314,
      "ент": 5315,
      " поро": 5316,
      "страи": 5317,
      " пользу": 5318,
      "Вы": 5319,
      "они": 5320,
      " роль": 5321,
      " отве": 5322,
      "жем": 5323,
      " Гу": 5324,
      " 100": 5325,
      " сторон": 5326,
      " экспе": 5327,
      " материа": 5328,
      " первого": 5329,
      "ровали": 5330,
      "10": 5331,
      " Его": 5332,
      " оче": 5333,
      " национа": 5334,
      " поме": 5335,
      " Раз": 5336,
      " опреде": 5337,
      "тельное": 5338,
      " упомина": 5339,
      " далеко": 5340,
      " диа": 5341,
      "тября": 5342,
      " территории": 5343,
      "чин": 5344,
      "пан": 5345,
      "АП": 5346,
      " сосе": 5347,
      "ницу": 5348,
      " сторону": 5349,
      " судь": 5350,
      " факт": 5351,
      "чными": 5352,
      " власть": 5353,
      " специально": 5354,
      " буд": 5355,
      "ана": 5356,
      "визи": 5357,
      "рования": 5358,
      " система": 5359,
      " 90": 5360,
      " памя": 5361,
      " степ": 5362,
      " шта": 5363,
      "ведение": 5364,
      " позже": 5365,
      " естест": 5366,
      "менты": 5367,
      "говор": 5368,
      " удалось": 5369,
      "чий": 5370,
      " история": 5371,
      "обо": 5372,
      "валась": 5373,
      " сама": 5374,
      "щества": 5375,
      " сложно": 5376,
      "лд": 5377,
      "тное": 5378,
      "зь": 5379,
      "мое": 5380,
      "чное": 5381,
      " чаще": 5382,
      " пытается": 5383,
      "██": 5384,
      " ус": 5385,
      "щик": 5386,
      "еба": 5387,
      " экс": 5388,
      " какие": 5389,
      " устро": 5390,
      "бес": 5391,
      " вза": 5392,
      " 12": 5393,
      "пор": 5394,
      "ul": 5395,
      "мень": 5396,
      "тят": 5397,
      " концов": 5398,
      " источ": 5399,
      " повы": 5400,
      " отнош": 5401,
      " обес": 5402,
      " n": 5403,
      " пост": 5404,
      " невозможно": 5405,
      "готов": 5406,
      " поддерж": 5407,
      " статьи": 5408,
      " ав": 5409,
      " действия": 5410,
      " работает": 5411,
      "меется": 5412,
      "тельным": 5413,
      "тон": 5414,
      " иначе": 5415,
      "льти": 5416,
      "чке": 5417,
      "руется": 5418,
      "11": 5419,
      "лений": 5420,
      " замо": 5421,
      " Ту": 5422,
      " умер": 5423,
      " дерев": 5424,
      " охо": 5425,
      " события": 5426,
      " производи": 5427,
      " Вер": 5428,
      " сопро": 5429,
      "гии": 5430,
      " выну": 5431,
      "зд": 5432,
      " клю": 5433,
      " выжи": 5434,
      " Ша": 5435,
      " возду": 5436,
      " Кри": 5437,
      " Ис": 5438,
      " одном": 5439,
      "ation": 5440,
      "Та": 5441,
      " наконец": 5442,
      "лэ": 5443,
      "емых": 5444,
      "цем": 5445,
      " расо": 5446,
      " напа": 5447,
      "лад": 5448,
      "мей": 5449,
      " такая": 5450,
      "телям": 5451,
      " сере": 5452,
      "скому": 5453,
      "планет": 5454,
      " жить": 5455,
      "Из": 5456,
      " пути": 5457,
      " зрения": 5458,
      "ленно": 5459,
      " хра": 5460,
      "ловек": 5461,
      " генера": 5462,
      " пой": 5463,
      "кали": 5464,
      " кому": 5465,
      " Она": 5466,
      " пов": 5467,
      "санд": 5468,
      "валось": 5469,
      " ауди": 5470,
      " офи": 5471,
      " соба": 5472,
      " Дже": 5473,
      " Ря": 5474,
      " фильма": 5475,
      "жением": 5476,
      " доб": 5477,
      " мере": 5478,
      " тролли": 5479,
      " особен": 5480,
      " считают": 5481,
      " посвя": 5482,
      " событий": 5483,
      "ок": 5484,
      " компании": 5485,
      " тему": 5486,
      " определён": 5487,
      " каза": 5488,
      "гни": 5489,
      "един": 5490,
      " Чу": 5491,
      " фей": 5492,
      "щему": 5493,
      " снима": 5494,
      " оде": 5495,
      " стандар": 5496,
      "мым": 5497,
      " St": 5498,
      " психо": 5499,
      "рыв": 5500,
      "дор": 5501,
      " поле": 5502,
      "министра": 5503,
      " системы": 5504,
      " европей": 5505,
      "ub": 5506,
      "вшихся": 5507,
      " кло": 5508,
      " ныне": 5509,
      "ету": 5510,
      " группа": 5511,
      " оби": 5512,
      " зла": 5513,
      "жь": 5514,
      " наро": 5515,
      " назад": 5516,
      " дро": 5517,
      " 198": 5518,
      " дево": 5519,
      "рез": 5520,
      "деми": 5521,
      "тельного": 5522,
      " связа": 5523,
      " быдло": 5524,
      " немец": 5525,
      "гони": 5526,
      " голову": 5527,
      "фу": 5528,
      " воору": 5529,
      " доставля": 5530,
      " зри": 5531,
      "II": 5532,
      "реза": 5533,
      "зин": 5534,
      " исключительно": 5535,
      "начально": 5536,
      "виси": 5537,
      "ньше": 5538,
      " работать": 5539,
      " прочие": 5540,
      "шить": 5541,
      " обнаружи": 5542,
      "тое": 5543,
      "тным": 5544,
      " Чёр": 5545,
      "тические": 5546,
      " обсу": 5547,
      "льными": 5548,
      " радо": 5549,
      " разработчи": 5550,
      " четыре": 5551,
      " глаз": 5552,
      "ссии": 5553,
      " хочет": 5554,
      " конфлик": 5555,
      "чений": 5556,
      "дное": 5557,
      " ше": 5558,
      "ТО": 5559,
      " ап": 5560,
      " завер": 5561,
      " волшеб": 5562,
      " све": 5563,
      " деятельно": 5564,
      "жений": 5565,
      "клон": 5566,
      " выступа": 5567,
      "шин": 5568,
      " бор": 5569,
      "рай": 5570,
      " испы": 5571,
      "жным": 5572,
      "шке": 5573,
      " электро": 5574,
      "Ре": 5575,
      " наш": 5576,
      "дина": 5577,
      " спокой": 5578,
      " непло": 5579,
      " сня": 5580,
      "»).": 5581,
      " кварти": 5582,
      " внут": 5583,
      "рец": 5584,
      "Су": 5585,
      " нём": 5586,
      "бычно": 5587,
      " конкре": 5588,
      " проблемы": 5589,
      " мультфильмы": 5590,
      "ческом": 5591,
      " макси": 5592,
      " безу": 5593,
      "мор": 5594,
      " всеми": 5595,
      " дво": 5596,
      " говори": 5597,
      " бур": 5598,
      " най": 5599,
      "тина": 5600,
      " одну": 5601,
      "бный": 5602,
      "фон": 5603,
      "тает": 5604,
      "дям": 5605,
      " коммента": 5606,
      "мую": 5607,
      " жо": 5608,
      "вит": 5609,
      " повто": 5610,
      " раньше": 5611,
      " знако": 5612,
      " мнение": 5613,
      "рица": 5614,
      "пле": 5615,
      " мора": 5616,
      " расс": 5617,
      "чень": 5618,
      "емые": 5619,
      " артефакт": 5620,
      "ременно": 5621,
      " войска": 5622,
      " заба": 5623,
      " Сто": 5624,
      " неда": 5625,
      "ногие": 5626,
      " капита": 5627,
      " дека": 5628,
      "нин": 5629,
      " вселенной": 5630,
      "зом": 5631,
      " краси": 5632,
      "кар": 5633,
      "вел": 5634,
      "То": 5635,
      " лока": 5636,
      " поддержи": 5637,
      " пожа": 5638,
      "вшиеся": 5639,
      "нс": 5640,
      " отказа": 5641,
      " позволяет": 5642,
      " приме": 5643,
      "ствуют": 5644,
      " поста": 5645,
      " причина": 5646,
      "ленные": 5647,
      "ктора": 5648,
      " Или": 5649,
      " професси": 5650,
      " первых": 5651,
      " сказал": 5652,
      "щать": 5653,
      " экра": 5654,
      "тная": 5655,
      "ногда": 5656,
      "вёр": 5657,
      " сен": 5658,
      " беспо": 5659,
      "зви": 5660,
      "od": 5661,
      " круто": 5662,
      "Ми": 5663,
      " л": 5664,
      "ik": 5665,
      "ec": 5666,
      " выбо": 5667,
      " данный": 5668,
      " опять": 5669,
      " буква": 5670,
      " полез": 5671,
      " любы": 5672,
      " Империя": 5673,
      " выглядит": 5674,
      "тал": 5675,
      " содержа": 5676,
      "игры": 5677,
      " Мор": 5678,
      "ленный": 5679,
      " сотруд": 5680,
      "вей": 5681,
      " война": 5682,
      " конца": 5683,
      " представляет": 5684,
      "щество": 5685,
      " запа": 5686,
      "дон": 5687,
      " привы": 5688,
      " тело": 5689,
      " матери": 5690,
      " планеты": 5691,
      "ЗАП": 5692,
      "ниц": 5693,
      "раздо": 5694,
      " интернета": 5695,
      " Гра": 5696,
      " –": 5697,
      " Фран": 5698,
      " восто": 5699,
      "ванию": 5700,
      " язык": 5701,
      "гам": 5702,
      " путешест": 5703,
      "ссив": 5704,
      " применя": 5705,
      " прошло": 5706,
      " перевод": 5707,
      "чествен": 5708,
      " нескольких": 5709,
      "нили": 5710,
      "зация": 5711,
      " сколько": 5712,
      " утвержда": 5713,
      " обита": 5714,
      " пропаган": 5715,
      "НЕЗАП": 5716,
      " случи": 5717,
      " автомоби": 5718,
      " ката": 5719,
      " считается": 5720,
      " государства": 5721,
      " Синдром": 5722,
      " обеспе": 5723,
      "ra": 5724,
      "ус": 5725,
      " Пре": 5726,
      " мужи": 5727,
      " изу": 5728,
      "дили": 5729,
      "лять": 5730,
      " связан": 5731,
      " ску": 5732,
      "тивно": 5733,
      " сабж": 5734,
      " сет": 5735,
      "никам": 5736,
      " пришлось": 5737,
      " Ад": 5738,
      "ёрт": 5739,
      " дес": 5740,
      " оружия": 5741,
      " сцена": 5742,
      " Жи": 5743,
      " 30": 5744,
      "ight": 5745,
      " худо": 5746,
      " сайт": 5747,
      " коммуни": 5748,
      "тези": 5749,
      "сные": 5750,
      " Й": 5751,
      " говорить": 5752,
      " оказалось": 5753,
      " функ": 5754,
      " неве": 5755,
      " стара": 5756,
      "анг": 5757,
      " убить": 5758,
      "ющую": 5759,
      " дли": 5760,
      " явно": 5761,
      " меди": 5762,
      "стами": 5763,
      " никак": 5764,
      "НЕЗАПНО": 5765,
      "ед": 5766,
      "цом": 5767,
      " эпо": 5768,
      "ссе": 5769,
      " ат": 5770,
      " играть": 5771,
      " l": 5772,
      " счёт": 5773,
      " прос": 5774,
      " распростра": 5775,
      "жён": 5776,
      "нди": 5777,
      " Всё": 5778,
      " очередной": 5779,
      " осу": 5780,
      " револю": 5781,
      " народа": 5782,
      " находя": 5783,
      " роман": 5784,
      " работу": 5785,
      " цели": 5786,
      "луч": 5787,
      "!)": 5788,
      " демон": 5789,
      " мер": 5790,
      "лах": 5791,
      "вока": 5792,
      "нил": 5793,
      " дом": 5794,
      " близ": 5795,
      "um": 5796,
      " Воз": 5797,
      "сах": 5798,
      " забо": 5799,
      " троп": 5800,
      " смерть": 5801,
      "игра": 5802,
      " чём": 5803,
      " низ": 5804,
      " ува": 5805,
      " тяже": 5806,
      " регуляр": 5807,
      "альной": 5808,
      " музыка": 5809,
      "нной": 5810,
      "рачи": 5811,
      " паль": 5812,
      "собенно": 5813,
      "ck": 5814,
      " зависи": 5815,
      "дного": 5816,
      " внутри": 5817,
      " Именно": 5818,
      " просты": 5819,
      " либера": 5820,
      " план": 5821,
      " нарко": 5822,
      "мого": 5823,
      " ниже": 5824,
      " Фи": 5825,
      "новременно": 5826,
      "ственный": 5827,
      " возмо": 5828,
      " переста": 5829,
      " дети": 5830,
      "долго": 5831,
      "бур": 5832,
      "лети": 5833,
      " логи": 5834,
      " появляется": 5835,
      " ого": 5836,
      " хозя": 5837,
      "пара": 5838,
      " Кос": 5839,
      " внимание": 5840,
      " каждого": 5841,
      "нья": 5842,
      " брать": 5843,
      " супер": 5844,
      " появился": 5845,
      " рак": 5846,
      " нового": 5847,
      " реб": 5848,
      " идёт": 5849,
      " трёх": 5850,
      " 2022": 5851,
      " Александ": 5852,
      " учё": 5853,
      " техни": 5854,
      " печа": 5855,
      " бывает": 5856,
      "кер": 5857,
      "тика": 5858,
      " заяви": 5859,
      " приходится": 5860,
      " Доб": 5861,
      " воло": 5862,
      " рядом": 5863,
      "лению": 5864,
      "кин": 5865,
      " подоз": 5866,
      "тельная": 5867,
      "емой": 5868,
      " кате": 5869,
      " управля": 5870,
      "дания": 5871,
      " права": 5872,
      " причём": 5873,
      " используется": 5874,
      "тернатив": 5875,
      " оборо": 5876,
      "частую": 5877,
      " демокра": 5878,
      "ели": 5879,
      "цени": 5880,
      "ваний": 5881,
      " филосо": 5882,
      " обязательно": 5883,
      "ссия": 5884,
      " главный": 5885,
      "снов": 5886,
      "поли": 5887,
      "нного": 5888,
      " союз": 5889,
      " гораздо": 5890,
      " цвет": 5891,
      " вампи": 5892,
      "200": 5893,
      "em": 5894,
      " анониму": 5895,
      "тр": 5896,
      "кает": 5897,
      " Люди": 5898,
      " любят": 5899,
      "равда": 5900,
      "нка": 5901,
      "степенно": 5902,
      " точки": 5903,
      "оборот": 5904,
      " холо": 5905,
      " a": 5906,
      "чением": 5907,
      "дует": 5908,
      " преды": 5909,
      " отметить": 5910,
      " абсолютно": 5911,
      " измени": 5912,
      "лко": 5913,
      " независи": 5914,
      "дох": 5915,
      "роз": 5916,
      " лица": 5917,
      " Герма": 5918,
      " рода": 5919,
      " g": 5920,
      "чкой": 5921,
      " сначала": 5922,
      " корабль": 5923,
      " свер": 5924,
      "тит": 5925,
      " Влади": 5926,
      "сф": 5927,
      " девушка": 5928,
      "женые": 5929,
      "кл": 5930,
      " доказа": 5931,
      "жная": 5932,
      "чал": 5933,
      "чиков": 5934,
      " мая": 5935,
      " находи": 5936,
      " первую": 5937,
      " …": 5938,
      "дный": 5939,
      " зара": 5940,
      " другим": 5941,
      " необходимо": 5942,
      " впрочем": 5943,
      "деква": 5944,
      "мпи": 5945,
      " злодей": 5946,
      " возможности": 5947,
      "два": 5948,
      "веден": 5949,
      "пти": 5950,
      " вынужден": 5951,
      "Си": 5952,
      " проводи": 5953,
      "первые": 5954,
      " проте": 5955,
      " 2010": 5956,
      "ело": 5957,
      " прид": 5958,
      " воспри": 5959,
      "оти": 5960,
      "нице": 5961,
      " отда": 5962,
      " редко": 5963,
      " людям": 5964,
      " Украины": 5965,
      " другом": 5966,
      "ал": 5967,
      " мину": 5968,
      "езд": 5969,
      "кта": 5970,
      "фри": 5971,
      "лено": 5972,
      " установ": 5973,
      " тако": 5974,
      " миниму": 5975,
      "пля": 5976,
      "жка": 5977,
      "тагони": 5978,
      "дий": 5979,
      "надле": 5980,
      " дней": 5981,
      "ключения": 5982,
      "чика": 5983,
      " ВНЕЗАПНО": 5984,
      " любит": 5985,
      "новь": 5986,
      " зад": 5987,
      "били": 5988,
      " 194": 5989,
      " катего": 5990,
      "рхи": 5991,
      " появились": 5992,
      " окончательно": 5993,
      " отра": 5994,
      "ранти": 5995,
      " h": 5996,
      "рых": 5997,
      "новить": 5998,
      " спро": 5999,
      " своём": 6000,
      " вскоре": 6001,
      " сум": 6002,
      " Май": 6003,
      " называют": 6004,
      " недоста": 6005,
      " приобре": 6006,
      " перво": 6007,
      " прохо": 6008,
      " соответству": 6009,
      " сериала": 6010,
      "ate": 6011,
      "сен": 6012,
      " Ряженые": 6013,
      " дня": 6014,
      "шой": 6015,
      " обозна": 6016,
      " уровень": 6017,
      " примен": 6018,
      "ятся": 6019,
      " новой": 6020,
      " руковод": 6021,
      " ото": 6022,
      " разре": 6023,
      " францу": 6024,
      " известный": 6025,
      "логии": 6026,
      "ath": 6027,
      "all": 6028,
      " момента": 6029,
      " сни": 6030,
      " продви": 6031,
      "бит": 6032,
      " маль": 6033,
      "бки": 6034,
      "нения": 6035,
      " поки": 6036,
      "фов": 6037,
      " городе": 6038,
      " реак": 6039,
      " каким": 6040,
      " указа": 6041,
      " 50": 6042,
      " причине": 6043,
      " освобо": 6044,
      " столь": 6045,
      " книги": 6046,
      " имен": 6047,
      "пада": 6048,
      "мене": 6049,
      " остальные": 6050,
      "тке": 6051,
      "тиви": 6052,
      "джа": 6053,
      " разве": 6054,
      "бла": 6055,
      "нное": 6056,
      "ведливо": 6057,
      " администра": 6058,
      " дав": 6059,
      "энтези": 6060,
      "лиз": 6061,
      "пута": 6062,
      "куп": 6063,
      " состоит": 6064,
      " начинают": 6065,
      " управ": 6066,
      " принадле": 6067,
      " подвер": 6068,
      "тических": 6069,
      "дьми": 6070,
      " гри": 6071,
      "шему": 6072,
      " Пет": 6073,
      " Амери": 6074,
      " бана": 6075,
      " стоя": 6076,
      "Лю": 6077,
      " уси": 6078,
      " компьютер": 6079,
      "меры": 6080,
      " дальней": 6081,
      " жив": 6082,
      " нему": 6083,
      " Ци": 6084,
      "ллю": 6085,
      "эт": 6086,
      " иди": 6087,
      " паро": 6088,
      " Фа": 6089,
      " выпуска": 6090,
      " сил": 6091,
      "циях": 6092,
      " версия": 6093,
      " пиш": 6094,
      "бил": 6095,
      "бай": 6096,
      " удар": 6097,
      "лья": 6098,
      " аж": 6099,
      "брать": 6100,
      " многочислен": 6101,
      " которому": 6102,
      " непоня": 6103,
      " пон": 6104,
      " ЧС": 6105,
      " экспери": 6106,
      " готов": 6107,
      "навли": 6108,
      "канчи": 6109,
      " Зловещий": 6110,
      "кли": 6111,
      "рят": 6112,
      " говорят": 6113,
      "зить": 6114,
      " традицион": 6115,
      " автома": 6116,
      "рые": 6117,
      " типи": 6118,
      " слы": 6119,
      " масшта": 6120,
      "Ва": 6121,
      " уве": 6122,
      " стату": 6123,
      "st": 6124,
      " апре": 6125,
      "дцать": 6126,
      "теллек": 6127,
      "дных": 6128,
      "ющиеся": 6129,
      " корот": 6130,
      "сред": 6131,
      " фоне": 6132,
      "стях": 6133,
      "тали": 6134,
      " увер": 6135,
      "гей": 6136,
      " наоборот": 6137,
      "ментов": 6138,
      " Даже": 6139,
      "»),": 6140,
      " кош": 6141,
      "читы": 6142,
      " ходе": 6143,
      " понятно": 6144,
      " ссы": 6145,
      "ними": 6146,
      " 17": 6147,
      " In": 6148,
      "полу": 6149,
      " Авто": 6150,
      " жесто": 6151,
      "ческими": 6152,
      " возник": 6153,
      " произведения": 6154,
      " смысле": 6155,
      " предыду": 6156,
      "вие": 6157,
      " подпи": 6158,
      "ce": 6159,
      "нё": 6160,
      "th": 6161,
      "вил": 6162,
      " спустя": 6163,
      " ян": 6164,
      "пет": 6165,
      "лизации": 6166,
      "Однако": 6167,
      " авиа": 6168,
      " Вто": 6169,
      " страш": 6170,
      " успешно": 6171,
      " покупа": 6172,
      " Зе": 6173,
      " прош": 6174,
      "дам": 6175,
      "вец": 6176,
      "жий": 6177,
      " совмест": 6178,
      " различных": 6179,
      "15": 6180,
      " вновь": 6181,
      " контен": 6182,
      "чета": 6183,
      " пять": 6184,
      "пуска": 6185,
      "нюю": 6186,
      "жили": 6187,
      "пусти": 6188,
      "тку": 6189,
      "евра": 6190,
      " радио": 6191,
      " считает": 6192,
      " трол": 6193,
      "еме": 6194,
      " столи": 6195,
      "хие": 6196,
      " последний": 6197,
      "гант": 6198,
      " обществен": 6199,
      " войну": 6200,
      " площа": 6201,
      "МИ": 6202,
      " откро": 6203,
      " Пред": 6204,
      "зав": 6205,
      " добра": 6206,
      " посмот": 6207,
      " коллек": 6208,
      " вещи": 6209,
      " историю": 6210,
      " области": 6211,
      "тики": 6212,
      " Есть": 6213,
      " терро": 6214,
      "ровки": 6215,
      " Дом": 6216,
      " начинается": 6217,
      " полноцен": 6218,
      " сабжа": 6219,
      "Хо": 6220,
      " раскры": 6221,
      " служ": 6222,
      "лую": 6223,
      "ri": 6224,
      " большая": 6225,
      "изнес": 6226,
      " земли": 6227,
      "жного": 6228,
      " лета": 6229,
      "убий": 6230,
      " хуже": 6231,
      " получает": 6232,
      " фотографи": 6233,
      " назна": 6234,
      "лота": 6235,
      "зай": 6236,
      " придума": 6237,
      " Глав": 6238,
      "видно": 6239,
      " созна": 6240,
      " какого": 6241,
      "гар": 6242,
      " дабы": 6243,
      "туре": 6244,
      " выпили": 6245,
      " принципе": 6246,
      "тором": 6247,
      "вов": 6248,
      " Нет": 6249,
      " знамени": 6250,
      " Вики": 6251,
      " тысячи": 6252,
      " любого": 6253,
      " строи": 6254,
      " аген": 6255,
      " разум": 6256,
      " видимо": 6257,
      " кров": 6258,
      " Ги": 6259,
      " евре": 6260,
      " сделал": 6261,
      " вои": 6262,
      " двига": 6263,
      " проект": 6264,
      " товари": 6265,
      " Ты": 6266,
      "бами": 6267,
      "ждает": 6268,
      " Там": 6269,
      "рабаты": 6270,
      "чнее": 6271,
      " агре": 6272,
      "стый": 6273,
      " удо": 6274,
      " Правда": 6275,
      " людьми": 6276,
      " одновременно": 6277,
      " создания": 6278,
      " гря": 6279,
      " реко": 6280,
      " появилась": 6281,
      " исполни": 6282,
      "нит": 6283,
      " заво": 6284,
      " Кры": 6285,
      " замет": 6286,
      " суб": 6287,
      "ab": 6288,
      " особы": 6289,
      " авгу": 6290,
      " сверх": 6291,
      " минимум": 6292,
      " простран": 6293,
      " глубо": 6294,
      " закончи": 6295,
      " монст": 6296,
      "ющийся": 6297,
      " Несмотря": 6298,
      "жают": 6299,
      " употре": 6300,
      " силь": 6301,
      " тупо": 6302,
      " посла": 6303,
      " робо": 6304,
      " эпизо": 6305,
      " вет": 6306,
      " Маги": 6307,
      " изначально": 6308,
      " первые": 6309,
      "12": 6310,
      " зам": 6311,
      " другу": 6312,
      "ера": 6313,
      "ющихся": 6314,
      " игрок": 6315,
      "рка": 6316,
      " Z": 6317,
      " устраи": 6318,
      " считать": 6319,
      " Интер": 6320,
      " зом": 6321,
      "зой": 6322,
      " исче": 6323,
      "рика": 6324,
      " иметь": 6325,
      " слов": 6326,
      " степени": 6327,
      " +": 6328,
      "дес": 6329,
      "жки": 6330,
      " уч": 6331,
      "рес": 6332,
      " всяких": 6333,
      " вызывает": 6334,
      " клу": 6335,
      "нная": 6336,
      " должна": 6337,
      " государствен": 6338,
      " реальности": 6339,
      " прока": 6340,
      " мини": 6341,
      "оны": 6342,
      " тр": 6343,
      "ers": 6344,
      "хотя": 6345,
      "альная": 6346,
      " вар": 6347,
      " игрока": 6348,
      " ранее": 6349,
      " Фе": 6350,
      " безопас": 6351,
      " оско": 6352,
      " дракон": 6353,
      "матри": 6354,
      " ситуации": 6355,
      " случаях": 6356,
      " уровне": 6357,
      "Все": 6358,
      " вызыва": 6359,
      "гают": 6360,
      " поводу": 6361,
      " середи": 6362,
      " Мы": 6363,
      " бизнес": 6364,
      " 197": 6365,
      " игроков": 6366,
      " психи": 6367,
      " зависимости": 6368,
      "17": 6369,
      " смог": 6370,
      "шкой": 6371,
      " фигу": 6372,
      " внутрен": 6373,
      "зву": 6374,
      " разо": 6375,
      " взять": 6376,
      " пом": 6377,
      "вос": 6378,
      " развле": 6379,
      "щаться": 6380,
      " делают": 6381,
      " Крутой": 6382,
      " информации": 6383,
      " Япо": 6384,
      "чали": 6385,
      " февра": 6386,
      "Ви": 6387,
      " сест": 6388,
      " дополни": 6389,
      " 25": 6390,
      " немало": 6391,
      "чему": 6392,
      "Бу": 6393,
      " еба": 6394,
      "иму": 6395,
      " пусты": 6396,
      " гно": 6397,
      " Вой": 6398,
      " противника": 6399,
      "ристиан": 6400,
      "сная": 6401,
      " конец": 6402,
      "нулся": 6403,
      "жай": 6404,
      " попыта": 6405,
      "дения": 6406,
      "мера": 6407,
      " помощь": 6408,
      "Ну": 6409,
      " объяви": 6410,
      " сража": 6411,
      " транспо": 6412,
      "av": 6413,
      " сети": 6414,
      " расши": 6415,
      " британ": 6416,
      "чины": 6417,
      " создать": 6418,
      "чами": 6419,
      " 2014": 6420,
      "сля": 6421,
      " Джей": 6422,
      " Рей": 6423,
      " каждой": 6424,
      " циви": 6425,
      ".,": 6426,
      " мнению": 6427,
      "люб": 6428,
      "дце": 6429,
      "сный": 6430,
      " аудито": 6431,
      "пта": 6432,
      " облада": 6433,
      " став": 6434,
      " Бра": 6435,
      "рование": 6436,
      " Ше": 6437,
      "рпи": 6438,
      "разу": 6439,
      "водя": 6440,
      "бин": 6441,
      " период": 6442,
      " каких": 6443,
      "Когда": 6444,
      " заканчи": 6445,
      " мел": 6446,
      " описы": 6447,
      "форми": 6448,
      " путь": 6449,
      " понять": 6450,
      "моз": 6451,
      " гомо": 6452,
      " остальных": 6453,
      " друзья": 6454,
      " инопланет": 6455,
      "кви": 6456,
      "зать": 6457,
      " преду": 6458,
      " Жут": 6459,
      " сре": 6460,
      " злоде": 6461,
      " кано": 6462,
      " протя": 6463,
      " исследо": 6464,
      " бер": 6465,
      "вляется": 6466,
      " раст": 6467,
      " машины": 6468,
      " семей": 6469,
      " янва": 6470,
      " врагов": 6471,
      " погиб": 6472,
      "рони": 6473,
      "например": 6474,
      " мона": 6475,
      " никому": 6476,
      " прият": 6477,
      " сайте": 6478,
      " and": 6479,
      "хран": 6480,
      " литера": 6481,
      " последова": 6482,
      " составля": 6483,
      "жали": 6484,
      " ев": 6485,
      "телю": 6486,
      " преврати": 6487,
      " обладает": 6488,
      "сексу": 6489,
      " просмот": 6490,
      " Анд": 6491,
      " далее": 6492,
      "тт": 6493,
      " основа": 6494,
      " никаких": 6495,
      "Па": 6496,
      "Тем": 6497,
      " 13": 6498,
      " выпи": 6499,
      " миру": 6500,
      " обратно": 6501,
      "op": 6502,
      "тех": 6503,
      " постепенно": 6504,
      " Империи": 6505,
      "ev": 6506,
      " беспла": 6507,
      " количества": 6508,
      " рес": 6509,
      " самая": 6510,
      " зачастую": 6511,
      "сор": 6512,
      "тую": 6513,
      " Гар": 6514,
      " нее": 6515,
      " соста": 6516,
      " моби": 6517,
      " серия": 6518,
      "?»": 6519,
      " рей": 6520,
      " какое": 6521,
      " присо": 6522,
      "сериа": 6523,
      " Джо": 6524,
      " стиле": 6525,
      " отличается": 6526,
      "дже": 6527,
      "кана": 6528,
      " Кор": 6529,
      " Аб": 6530,
      "Ин": 6531,
      "пси": 6532,
      " болез": 6533,
      "приз": 6534,
      " остаётся": 6535,
      " другими": 6536,
      "ностей": 6537,
      "мыслен": 6538,
      "шают": 6539,
      "обственно": 6540,
      " вышел": 6541,
      " каса": 6542,
      " 16": 6543,
      " 2012": 6544,
      " окружа": 6545,
      "енти": 6546,
      " пого": 6547,
      "сев": 6548,
      " 196": 6549,
      " сайта": 6550,
      " упа": 6551,
      " другого": 6552,
      "Му": 6553,
      "туру": 6554,
      " оказались": 6555,
      "тыми": 6556,
      " желез": 6557,
      " пись": 6558,
      " студен": 6559,
      " русский": 6560,
      "дри": 6561,
      " высоко": 6562,
      "!!!": 6563,
      " процесс": 6564,
      "тников": 6565,
      " орга": 6566,
      " тур": 6567,
      " проекта": 6568,
      "рту": 6569,
      "тник": 6570,
      "пя": 6571,
      " заслу": 6572,
      "рово": 6573,
      " распо": 6574,
      " лиш": 6575,
      " бело": 6576,
      "печат": 6577,
      "ённый": 6578,
      "сл": 6579,
      " реда": 6580,
      " комплек": 6581,
      " символи": 6582,
      "жено": 6583,
      " Сле": 6584,
      " спец": 6585,
      " продук": 6586,
      " станов": 6587,
      "дев": 6588,
      "чено": 6589,
      " предпри": 6590,
      " некоторое": 6591,
      "язы": 6592,
      " 2020": 6593,
      "жё": 6594,
      "тру": 6595,
      " чест": 6596,
      " выска": 6597,
      " чудови": 6598,
      " проблем": 6599,
      " разде": 6600,
      " см": 6601,
      "сия": 6602,
      " Дру": 6603,
      " Вол": 6604,
      " персонажи": 6605,
      " интеллек": 6606,
      " чисто": 6607,
      "лло": 6608,
      " остро": 6609,
      "рина": 6610,
      "лец": 6611,
      "щиков": 6612,
      "щают": 6613,
      "альным": 6614,
      " крови": 6615,
      " Восто": 6616,
      " спаса": 6617,
      " спокойно": 6618,
      " фрон": 6619,
      "вует": 6620,
      "честве": 6621,
      "Для": 6622,
      " фанатов": 6623,
      " y": 6624,
      " станет": 6625,
      " подроб": 6626,
      "носи": 6627,
      " спас": 6628,
      " минут": 6629,
      " брат": 6630,
      " плане": 6631,
      " максима": 6632,
      " постав": 6633,
      "плоть": 6634,
      " сро": 6635,
      "кать": 6636,
      "таль": 6637,
      " таком": 6638,
      " ору": 6639,
      "няют": 6640,
      "годня": 6641,
      "тек": 6642,
      " прокля": 6643,
      "венный": 6644,
      " оказалась": 6645,
      " популярность": 6646,
      " рыца": 6647,
      " угодно": 6648,
      " получается": 6649,
      " пти": 6650,
      " вез": 6651,
      " Bl": 6652,
      "тё": 6653,
      " бю": 6654,
      " Чер": 6655,
      "нуться": 6656,
      " долла": 6657,
      "тим": 6658,
      " Бар": 6659,
      " располо": 6660,
      "лн": 6661,
      "пора": 6662,
      "мплей": 6663,
      " лицо": 6664,
      " карты": 6665,
      " импера": 6666,
      " газ": 6667,
      " Тогда": 6668,
      " наблюда": 6669,
      "жим": 6670,
      " стру": 6671,
      " вики": 6672,
      " состоянии": 6673,
      " сравн": 6674,
      " приве": 6675,
      " магази": 6676,
      " профи": 6677,
      "чном": 6678,
      "друг": 6679,
      " обви": 6680,
      " рублей": 6681,
      " основной": 6682,
      " женщина": 6683,
      " солдат": 6684,
      " 2008": 6685,
      " уничтожить": 6686,
      " сегодня": 6687,
      " II": 6688,
      " взры": 6689,
      "Ни": 6690,
      "дится": 6691,
      " инстру": 6692,
      " первым": 6693,
      " встречается": 6694,
      "eg": 6695,
      " плани": 6696,
      "вия": 6697,
      " You": 6698,
      "див": 6699,
      " Сам": 6700,
      "ack": 6701,
      " серьез": 6702,
      " неплохо": 6703,
      " ноя": 6704,
      " тела": 6705,
      " специали": 6706,
      " сда": 6707,
      "вана": 6708,
      "гно": 6709,
      "щики": 6710,
      "ard": 6711,
      "are": 6712,
      "дная": 6713,
      "ристо": 6714,
      "питан": 6715,
      " началь": 6716,
      " захо": 6717,
      " рав": 6718,
      "лыми": 6719,
      " Послед": 6720,
      " зу": 6721,
      " Россия": 6722,
      " действий": 6723,
      " 2011": 6724,
      " впоследствии": 6725,
      " странах": 6726,
      " соответственно": 6727,
      " взаимо": 6728,
      "джи": 6729,
      " ман": 6730,
      " владель": 6731,
      " фантасти": 6732,
      "нести": 6733,
      " Свя": 6734,
      "ленная": 6735,
      "ева": 6736,
      "кри": 6737,
      " Роман": 6738,
      "циа": 6739,
      " Мэ": 6740,
      "шается": 6741,
      "родный": 6742,
      " повест": 6743,
      " фан": 6744,
      "Ба": 6745,
      " доку": 6746,
      " подня": 6747,
      " происхо": 6748,
      " буквально": 6749,
      " 14": 6750,
      " Ху": 6751,
      " лё": 6752,
      " теря": 6753,
      "тю": 6754,
      "стно": 6755,
      " напря": 6756,
      " борода": 6757,
      " речь": 6758,
      " решение": 6759,
      " страте": 6760,
      " старый": 6761,
      " тема": 6762,
      " плат": 6763,
      " войне": 6764,
      " главное": 6765,
      " предпочита": 6766,
      "Те": 6767,
      " Лени": 6768,
      "эм": 6769,
      "шал": 6770,
      " Золо": 6771,
      " след": 6772,
      " пытаются": 6773,
      "нему": 6774,
      "люби": 6775,
      "одно": 6776,
      "лян": 6777,
      " состав": 6778,
      " выхода": 6779,
      "дически": 6780,
      " Чи": 6781,
      " остров": 6782,
      "вляет": 6783,
      " удоб": 6784,
      "hi": 6785,
      " обре": 6786,
      "мено": 6787,
      " Драко": 6788,
      "зия": 6789,
      "еста": 6790,
      " автора": 6791,
      " последние": 6792,
      "севдо": 6793,
      "гия": 6794,
      "бар": 6795,
      " хотел": 6796,
      " комна": 6797,
      " .": 6798,
      "лями": 6799,
      "лева": 6800,
      "лку": 6801,
      " устрой": 6802,
      " Алсо": 6803,
      "луй": 6804,
      " одино": 6805,
      " преда": 6806,
      " зага": 6807,
      "льности": 6808,
      " шут": 6809,
      " столько": 6810,
      " происходя": 6811,
      "думы": 6812,
      " знать": 6813,
      " знают": 6814,
      " всякие": 6815,
      " 80": 6816,
      "стю": 6817,
      " непре": 6818,
      "лёт": 6819,
      "нией": 6820,
      " неред": 6821,
      " заяв": 6822,
      " дать": 6823,
      "нным": 6824,
      " кстати": 6825,
      "вери": 6826,
      "град": 6827,
      " развития": 6828,
      " in": 6829,
      " поп": 6830,
      " шту": 6831,
      "ствием": 6832,
      " число": 6833,
      " ряд": 6834,
      " вста": 6835,
      " хотят": 6836,
      " универ": 6837,
      "дё": 6838,
      " 11": 6839,
      " называется": 6840,
      "жена": 6841,
      " регулярно": 6842,
      "30": 6843,
      " республи": 6844,
      " различные": 6845,
      "хоро": 6846,
      " звез": 6847,
      " писать": 6848,
      " ски": 6849,
      "носит": 6850,
      " последу": 6851,
      " начало": 6852,
      " провер": 6853,
      " ред": 6854,
      "чении": 6855,
      " 2015": 6856,
      "Раз": 6857,
      "мены": 6858,
      " консо": 6859,
      " включая": 6860,
      "рисо": 6861,
      "вера": 6862,
      " уг": 6863,
      " бук": 6864,
      " общества": 6865,
      " законо": 6866,
      " длин": 6867,
      " сюжета": 6868,
      "муля": 6869,
      " настоящее": 6870,
      " суть": 6871,
      " нужны": 6872,
      " держа": 6873,
      " решает": 6874,
      "хий": 6875,
      "ube": 6876,
      "сра": 6877,
      " проблема": 6878,
      "ep": 6879,
      " доби": 6880,
      "шено": 6881,
      " колле": 6882,
      "зка": 6883,
      "циони": 6884,
      "способ": 6885,
      " фраза": 6886,
      " профессиона": 6887,
      "чками": 6888,
      " счет": 6889,
      " пото": 6890,
      " некий": 6891,
      "Алсо": 6892,
      " королев": 6893,
      " подобных": 6894,
      " попытки": 6895,
      "ел": 6896,
      " крова": 6897,
      " доставляет": 6898,
      " зака": 6899,
      "гр": 6900,
      "фер": 6901,
      "мит": 6902,
      "жая": 6903,
      "ленного": 6904,
      "тический": 6905,
      " естественно": 6906,
      " Чтобы": 6907,
      "Бы": 6908,
      " 2013": 6909,
      " Ведь": 6910,
      "ый": 6911,
      " относительно": 6912,
      " аре": 6913,
      " уника": 6914,
      "бая": 6915,
      " цвета": 6916,
      " своему": 6917,
      " страну": 6918,
      " фильмов": 6919,
      "ьет": 6920,
      " помимо": 6921,
      " прото": 6922,
      " русских": 6923,
      "чков": 6924,
      "тием": 6925,
      " годов": 6926,
      " Кла": 6927,
      " жу": 6928,
      "емого": 6929,
      " стреми": 6930,
      " сбор": 6931,
      "чиная": 6932,
      "хова": 6933,
      " атмо": 6934,
      " гита": 6935,
      "ерез": 6936,
      " Ано": 6937,
      "тельную": 6938,
      " графи": 6939,
      "дора": 6940,
      "ванный": 6941,
      " сосед": 6942,
      " фильме": 6943,
      " упомя": 6944,
      " Али": 6945,
      " бума": 6946,
      " каз": 6947,
      " изо": 6948,
      " изобре": 6949,
      " духов": 6950,
      " названия": 6951,
      " никакого": 6952,
      "делить": 6953,
      "англ": 6954,
      " сотни": 6955,
      " четырёх": 6956,
      "чена": 6957,
      " наши": 6958,
      " веду": 6959,
      " большую": 6960,
      "лое": 6961,
      " марта": 6962,
      " отлича": 6963,
      "СТ": 6964,
      "рованный": 6965,
      " настро": 6966,
      " честь": 6967,
      "знача": 6968,
      " ситуация": 6969,
      " механи": 6970,
      " добы": 6971,
      "едини": 6972,
      "сыла": 6973,
      "дена": 6974,
      "вол": 6975,
      "щими": 6976,
      " течение": 6977,
      " Бер": 6978,
      " жителей": 6979,
      "мость": 6980,
      "кун": 6981,
      " Гор": 6982,
      "ствовал": 6983,
      "см": 6984,
      " НЕ": 6985,
      " 2009": 6986,
      "гран": 6987,
      " мой": 6988,
      "нят": 6989,
      " Запад": 6990,
      " мысли": 6991,
      " большинстве": 6992,
      " выходит": 6993,
      " любовь": 6994,
      "лакти": 6995,
      " рам": 6996,
      "хам": 6997,
      " имел": 6998,
      "цер": 6999,
      " посо": 7000,
      "педии": 7001,
      "ену": 7002,
      " бар": 7003,
      " форму": 7004,
      " непосред": 7005,
      " условиях": 7006,
      " зелё": 7007,
      " уз": 7008,
      " государство": 7009,
      " Зловещая": 7010,
      " рекомен": 7011,
      " отца": 7012,
      " Школа": 7013,
      "Кон": 7014,
      " ожида": 7015,
      " возника": 7016,
      " Пар": 7017,
      " лулзов": 7018,
      " впервые": 7019,
      " идут": 7020,
      "50": 7021,
      " лес": 7022,
      " девя": 7023,
      " смогли": 7024,
      " случайно": 7025,
      "верь": 7026,
      " Некоторые": 7027,
      " беско": 7028,
      " 40": 7029,
      " здоров": 7030,
      " оке": 7031,
      " приходит": 7032,
      ".)": 7033,
      " самостоя": 7034,
      "Де": 7035,
      " плен": 7036,
      " иска": 7037,
      "роваться": 7038,
      " важно": 7039,
      " встреча": 7040,
      "гну": 7041,
      " Вин": 7042,
      " любом": 7043,
      " личности": 7044,
      " конкурен": 7045,
      " поци": 7046,
      " баш": 7047,
      " цер": 7048,
      " Тор": 7049,
      " лагер": 7050,
      " Таким": 7051,
      "енный": 7052,
      "мас": 7053,
      " нередко": 7054,
      "креп": 7055,
      "титься": 7056,
      " Полу": 7057,
      " смотреть": 7058,
      " ожи": 7059,
      " говна": 7060,
      "кадеми": 7061,
      " француз": 7062,
      " спор": 7063,
      " War": 7064,
      " 2023": 7065,
      " охра": 7066,
      " Ры": 7067,
      " назвать": 7068,
      "ставил": 7069,
      "етра": 7070,
      " центра": 7071,
      " аналоги": 7072,
      " шоу": 7073,
      "ллы": 7074,
      " какая": 7075,
      " фон": 7076,
      " мульти": 7077,
      " 2016": 7078,
      " неуда": 7079,
      "рип": 7080,
      " умира": 7081,
      " новую": 7082,
      " подру": 7083,
      " вплоть": 7084,
      " кем": 7085,
      " Россию": 7086,
      " гаранти": 7087,
      "кров": 7088,
      " раза": 7089,
      " частью": 7090,
      " Просто": 7091,
      " оппози": 7092,
      "щена": 7093,
      " навер": 7094,
      " часов": 7095,
      " поклон": 7096,
      " чему": 7097,
      " архи": 7098,
      " Затем": 7099,
      " известен": 7100,
      " причем": 7101,
      " Гла": 7102,
      " метро": 7103,
      "коми": 7104,
      "мии": 7105,
      "кратно": 7106,
      " помочь": 7107,
      "лива": 7108,
      " запили": 7109,
      "рованы": 7110,
      " неодно": 7111,
      " наци": 7112,
      " ез": 7113,
      " Кто": 7114,
      " плюс": 7115,
      "ain": 7116,
      "исто": 7117,
      " нрави": 7118,
      " навы": 7119,
      " НА": 7120,
      " песни": 7121,
      "мать": 7122,
      " имеется": 7123,
      "жела": 7124,
      " большим": 7125,
      "пру": 7126,
      " ощу": 7127,
      " воды": 7128,
      " дога": 7129,
      " собственной": 7130,
      " прожи": 7131,
      " человеком": 7132,
      " основе": 7133,
      "Есть": 7134,
      " родствен": 7135,
      " полага": 7136,
      "ждая": 7137,
      "стера": 7138,
      " сериал": 7139,
      " коз": 7140,
      "доро": 7141,
      "ходил": 7142,
      "ваясь": 7143,
      " последнее": 7144,
      " настоящий": 7145,
      " канал": 7146,
      " хомя": 7147,
      " кирпи": 7148,
      " сможет": 7149,
      " спасти": 7150,
      " интернетах": 7151,
      " гло": 7152,
      "og": 7153,
      "сии": 7154,
      " планета": 7155,
      "ess": 7156,
      " еврей": 7157,
      " даёт": 7158,
      "роятно": 7159,
      " протяжении": 7160,
      " мерт": 7161,
      " Изра": 7162,
      " Украине": 7163,
      "змом": 7164,
      "рис": 7165,
      " своем": 7166,
      "нои": 7167,
      " избе": 7168,
      " языке": 7169,
      "гон": 7170,
      "гут": 7171,
      " долбо": 7172,
      " причинам": 7173,
      " сбе": 7174,
      " Злой": 7175,
      " отсутствие": 7176,
      "ступил": 7177,
      "Он": 7178,
      " откуда": 7179,
      " Сан": 7180,
      " вдруг": 7181,
      "ковой": 7182,
      " фами": 7183,
      "льше": 7184,
      " досто": 7185,
      " преиму": 7186,
      " силой": 7187,
      " примеру": 7188,
      " поверх": 7189,
      "хать": 7190,
      "ходили": 7191,
      "чется": 7192,
      " позд": 7193,
      " партии": 7194,
      " выход": 7195,
      " испол": 7196,
      " сожал": 7197,
      " Планета": 7198,
      "лизм": 7199,
      "новид": 7200,
      " ошиб": 7201,
      " получили": 7202,
      " финан": 7203,
      " Ско": 7204,
      "Украи": 7205,
      " сча": 7206,
      "рией": 7207,
      " процессе": 7208,
      "дным": 7209,
      "фт": 7210,
      "вики": 7211,
      " христиан": 7212,
      " местных": 7213,
      " впечат": 7214,
      " разбира": 7215,
      "подоб": 7216,
      " выбра": 7217,
      " рома": 7218,
      "ill": 7219,
      "днев": 7220,
      "рели": 7221,
      "лье": 7222,
      "пира": 7223,
      "шое": 7224,
      " апреля": 7225,
      " выбира": 7226,
      "циями": 7227,
      " ужасов": 7228,
      " нечто": 7229,
      " идеи": 7230,
      " смысл": 7231,
      " 0": 7232,
      "рение": 7233,
      " сек": 7234,
      " страна": 7235,
      " положи": 7236,
      "интере": 7237,
      " тём": 7238,
      "Ле": 7239,
      " несо": 7240,
      " задро": 7241,
      " горя": 7242,
      " владе": 7243,
      " систему": 7244,
      " невозбран": 7245,
      " предполага": 7246,
      "пят": 7247,
      " живут": 7248,
      " демонов": 7249,
      " Благо": 7250,
      " сила": 7251,
      " Совет": 7252,
      " статье": 7253,
      " осущест": 7254,
      " сожалению": 7255,
      "зон": 7256,
      " син": 7257,
      " парень": 7258,
      "нике": 7259,
      "вик": 7260,
      " поля": 7261,
      " похож": 7262,
      " Джон": 7263,
      "фей": 7264,
      "бель": 7265,
      " главным": 7266,
      " компания": 7267,
      " намер": 7268,
      " жут": 7269,
      " to": 7270,
      " ЧСВ": 7271,
      "гая": 7272,
      " Иногда": 7273,
      "ступает": 7274,
      "ld": 7275,
      " зме": 7276,
      "тники": 7277,
      " суме": 7278,
      " Сло": 7279,
      "сад": 7280,
      " яр": 7281,
      " Хи": 7282,
      " карто": 7283,
      "мани": 7284,
      "ндо": 7285,
      " какую": 7286,
      " войск": 7287,
      " концеп": 7288,
      " империи": 7289,
      " полицей": 7290,
      " осозна": 7291,
      " контра": 7292,
      " музыкан": 7293,
      "зах": 7294,
      " ядер": 7295,
      " пры": 7296,
      " Их": 7297,
      " предска": 7298,
      " модера": 7299,
      " столк": 7300,
      " цита": 7301,
      " сравни": 7302,
      "вав": 7303,
      " Сей": 7304,
      " Теперь": 7305,
      " ё": 7306,
      "плы": 7307,
      " аэ": 7308,
      " эльфы": 7309,
      "каун": 7310,
      " отрица": 7311,
      "ft": 7312,
      "рас": 7313,
      " доспе": 7314,
      " СМИ": 7315,
      "вшими": 7316,
      "нете": 7317,
      " миллионов": 7318,
      "чики": 7319,
      " бол": 7320,
      "ениями": 7321,
      " сделали": 7322,
      " встречаются": 7323,
      " произошло": 7324,
      "чок": 7325,
      " Бри": 7326,
      " неф": 7327,
      " зачем": 7328,
      "казывается": 7329,
      " характери": 7330,
      "пании": 7331,
      " 2000": 7332,
      " анон": 7333,
      " девушки": 7334,
      " мировой": 7335,
      " слабо": 7336,
      " намного": 7337,
      "Ку": 7338,
      "вка": 7339,
      " словам": 7340,
      " смысла": 7341,
      " означает": 7342,
      " едва": 7343,
      " руках": 7344,
      "стрее": 7345,
      " бле": 7346,
      " Только": 7347,
      " блоки": 7348,
      "ницей": 7349,
      " вида": 7350,
      "логия": 7351,
      " произвед": 7352,
      " странно": 7353,
      " сентября": 7354,
      " Добро": 7355,
      "18": 7356,
      " Ком": 7357,
      "тана": 7358,
      " декабря": 7359,
      "Украина": 7360,
      "рский": 7361,
      " прибли": 7362,
      "рите": 7363,
      " маг": 7364,
      "стили": 7365,
      "зоваться": 7366,
      " существа": 7367,
      "est": 7368,
      " любви": 7369,
      " альтернатив": 7370,
      " прогре": 7371,
      " пересе": 7372,
      "тивный": 7373,
      " организа": 7374,
      "димо": 7375,
      " увеличи": 7376,
      " пригла": 7377,
      " микро": 7378,
      "бую": 7379,
      " сын": 7380,
      " оли": 7381,
      " всём": 7382,
      "ff": 7383,
      "рки": 7384,
      " награ": 7385,
      "нилось": 7386,
      " XX": 7387,
      "рили": 7388,
      " мемо": 7389,
      " команды": 7390,
      "ace": 7391,
      "джет": 7392,
      "чие": 7393,
      "ённых": 7394,
      " главе": 7395,
      "брошен": 7396,
      "понен": 7397,
      "пать": 7398,
      " рассказыва": 7399,
      " женщин": 7400,
      " большей": 7401,
      " способен": 7402,
      "ous": 7403,
      " улуч": 7404,
      " эмо": 7405,
      " семьи": 7406,
      " участников": 7407,
      " отец": 7408,
      " идет": 7409,
      " свидет": 7410,
      " талан": 7411,
      " вопросы": 7412,
      " десяти": 7413,
      " понрави": 7414,
      " мра": 7415,
      "чили": 7416,
      "бели": 7417,
      " руку": 7418,
      " истре": 7419,
      " Без": 7420,
      "енько": 7421,
      " случаев": 7422,
      " набор": 7423,
      "нями": 7424,
      " альбо": 7425,
      "жьё": 7426,
      " напи": 7427,
      " успеш": 7428,
      " невозбранно": 7429,
      " сма": 7430,
      " коль": 7431,
      " журнали": 7432,
      "тков": 7433,
      "куль": 7434,
      " транс": 7435,
      "нера": 7436,
      " отря": 7437,
      "ows": 7438,
      " везде": 7439,
      "дание": 7440,
      " вышла": 7441,
      " предм": 7442,
      " понимает": 7443,
      " Север": 7444,
      " оцени": 7445,
      " изба": 7446,
      " противостоя": 7447,
      " бессмер": 7448,
      " is": 7449,
      "мора": 7450,
      " оружием": 7451,
      " участие": 7452,
      "ального": 7453,
      " подума": 7454,
      " зас": 7455,
      " Обычно": 7456,
      " пяти": 7457,
      " вести": 7458,
      "ine": 7459,
      "Пре": 7460,
      "емая": 7461,
      "ваны": 7462,
      " Ал": 7463,
      " второго": 7464,
      " обез": 7465,
      "зера": 7466,
      "КА": 7467,
      " зак": 7468,
      " Гей": 7469,
      " врага": 7470,
      " магии": 7471,
      " домой": 7472,
      " языка": 7473,
      " костю": 7474,
      " пунк": 7475,
      " играх": 7476,
      "зже": 7477,
      " вкус": 7478,
      "мат": 7479,
      "нке": 7480,
      " идеологи": 7481,
      " боро": 7482,
      " май": 7483,
      " мать": 7484,
      "водить": 7485,
      " качества": 7486,
      " алкого": 7487,
      " веке": 7488,
      " организации": 7489,
      " породи": 7490,
      " штур": 7491,
      " форме": 7492,
      " света": 7493,
      "кну": 7494,
      "рона": 7495,
      " Свет": 7496,
      "чность": 7497,
      " 2021": 7498,
      "вшегося": 7499,
      " Один": 7500,
      "извест": 7501,
      " осталось": 7502,
      " сюда": 7503,
      "ВО": 7504,
      "тию": 7505,
      " оба": 7506,
      " расстре": 7507,
      " Чехова": 7508,
      " корабля": 7509,
      " террори": 7510,
      "лил": 7511,
      "льность": 7512,
      "чности": 7513,
      " военных": 7514,
      " ль": 7515,
      " ид": 7516,
      "сило": 7517,
      " Потом": 7518,
      " воск": 7519,
      "der": 7520,
      "где": 7521,
      "ов": 7522,
      " пройти": 7523,
      " Гри": 7524,
      "лера": 7525,
      "тик": 7526,
      " моно": 7527,
      " патри": 7528,
      " контак": 7529,
      " Более": 7530,
      " главного": 7531,
      " другое": 7532,
      "стест": 7533,
      " такую": 7534,
      "кото": 7535,
      " кучу": 7536,
      " известных": 7537,
      " био": 7538,
      " Путина": 7539,
      " позна": 7540,
      " вопло": 7541,
      "жин": 7542,
      " ума": 7543,
      "мерно": 7544,
      " дизай": 7545,
      " значительно": 7546,
      " армия": 7547,
      "рел": 7548,
      " море": 7549,
      " 2019": 7550,
      "вью": 7551,
      " двумя": 7552,
      " использует": 7553,
      " средства": 7554,
      " похоже": 7555,
      " разнообраз": 7556,
      " Германии": 7557,
      " вку": 7558,
      " зарабо": 7559,
      " лице": 7560,
      " крепо": 7561,
      " Тём": 7562,
      "зки": 7563,
      " пона": 7564,
      " дя": 7565,
      "ющем": 7566,
      "шими": 7567,
      "ive": 7568,
      "ченные": 7569,
      "пил": 7570,
      "жат": 7571,
      " суд": 7572,
      " Фо": 7573,
      " простой": 7574,
      "ame": 7575,
      " нев": 7576,
      " циф": 7577,
      "тона": 7578,
      " книга": 7579,
      " население": 7580,
      " Европе": 7581,
      " ближай": 7582,
      "меша": 7583,
      " Лин": 7584,
      "рованные": 7585,
      " сезона": 7586,
      " you": 7587,
      "PG": 7588,
      " псевдо": 7589,
      "гих": 7590,
      " убийства": 7591,
      " нашей": 7592,
      " посред": 7593,
      "АА": 7594,
      "упо": 7595,
      " первом": 7596,
      "ust": 7597,
      " Кей": 7598,
      " первая": 7599,
      " писто": 7600,
      " российских": 7601,
      " пользователей": 7602,
      " сопрово": 7603,
      "щаются": 7604,
      " 2017": 7605,
      "рно": 7606,
      " непро": 7607,
      "дию": 7608,
      "сятся": 7609,
      " купить": 7610,
      " будучи": 7611,
      " октября": 7612,
      "        ": 7613,
      " мело": 7614,
      " человечества": 7615,
      " ву": 7616,
      "етро": 7617,
      " нахуй": 7618,
      " полном": 7619,
      " ава": 7620,
      " сомни": 7621,
      " орки": 7622,
      " никакой": 7623,
      "частли": 7624,
      "Ме": 7625,
      " приро": 7626,
      " ген": 7627,
      " празд": 7628,
      " лоша": 7629,
      " Ана": 7630,
      " север": 7631,
      "ne": 7632,
      "рный": 7633,
      " Тут": 7634,
      " ВС": 7635,
      "бина": 7636,
      " дев": 7637,
      "чее": 7638,
      " инжен": 7639,
      "лайн": 7640,
      " друзей": 7641,
      "ian": 7642,
      "Ли": 7643,
      "мён": 7644,
      " зво": 7645,
      "шель": 7646,
      " которыми": 7647,
      " Бог": 7648,
      " становятся": 7649,
      "йт": 7650,
      " леги": 7651,
      " большое": 7652,
      " веру": 7653,
      " местах": 7654,
      " месяц": 7655,
      " уто": 7656,
      "нус": 7657,
      " программи": 7658,
      "рованных": 7659,
      " школо": 7660,
      " Сви": 7661,
      " Кро": 7662,
      " нужен": 7663,
      " внимания": 7664,
      "14": 7665,
      " скан": 7666,
      "нозав": 7667,
      " опубли": 7668,
      " нор": 7669,
      " вое": 7670,
      " души": 7671,
      "one": 7672,
      " Ружьё": 7673,
      "руя": 7674,
      "ниями": 7675,
      " аккаун": 7676,
      "РА": 7677,
      "тную": 7678,
      " сх": 7679,
      "вига": 7680,
      " разда": 7681,
      " Неформа": 7682,
      "):": 7683,
      "йки": 7684,
      " уче": 7685,
      " эки": 7686,
      " содержи": 7687,
      " Косми": 7688,
      " Ман": 7689,
      " самому": 7690,
      " Миха": 7691,
      "зал": 7692,
      " превос": 7693,
      " конструк": 7694,
      "РО": 7695,
      "ина": 7696,
      " действие": 7697,
      " рассказывает": 7698,
      "жется": 7699,
      " оправ": 7700,
      " Дей": 7701,
      "туда": 7702,
      " пытался": 7703,
      "Ты": 7704,
      "уго": 7705,
      " полной": 7706,
      " будущего": 7707,
      " нынеш": 7708,
      " февраля": 7709,
      " протагони": 7710,
      "пись": 7711,
      " реа": 7712,
      " подобные": 7713,
      " очевидно": 7714,
      "жнее": 7715,
      " прило": 7716,
      " яро": 7717,
      "читать": 7718,
      " замок": 7719,
      "?!": 7720,
      "кно": 7721,
      " чтоб": 7722,
      " инте": 7723,
      " цар": 7724,
      " Тро": 7725,
      " Оста": 7726,
      " красо": 7727,
      "ченный": 7728,
      "ass": 7729,
      " предна": 7730,
      " шан": 7731,
      " неприят": 7732,
      "стественно": 7733,
      " предполо": 7734,
      "дре": 7735,
      " коле": 7736,
      "ходе": 7737,
      "цин": 7738,
      " правильно": 7739,
      " популя": 7740,
      " Можно": 7741,
      " исчез": 7742,
      " озву": 7743,
      "тинг": 7744,
      " подготов": 7745,
      " пласти": 7746,
      " священ": 7747,
      " кажется": 7748,
      " армию": 7749,
      " религиоз": 7750,
      " злове": 7751,
      " яй": 7752,
      " начать": 7753,
      " защиты": 7754,
      " августа": 7755,
      " зер": 7756,
      "бах": 7757,
      "хами": 7758,
      " порой": 7759,
      " Вар": 7760,
      " темы": 7761,
      " реш": 7762,
      " Многие": 7763,
      " вспом": 7764,
      " правитель": 7765,
      "ставили": 7766,
      " победы": 7767,
      " женщины": 7768,
      " худож": 7769,
      " оскор": 7770,
      "тья": 7771,
      " чле": 7772,
      " заявля": 7773,
      "дивительно": 7774,
      " процен": 7775,
      " желе": 7776,
      "первых": 7777,
      "ченных": 7778,
      " иностран": 7779,
      " большинства": 7780,
      " напоминает": 7781,
      " воспринима": 7782,
      "жную": 7783,
      "меров": 7784,
      " мега": 7785,
      "ie": 7786,
      " утра": 7787,
      "чью": 7788,
      "тисти": 7789,
      " гер": 7790,
      " времён": 7791,
      "ехал": 7792,
      " винра": 7793,
      "16": 7794,
      "Вот": 7795,
      "южет": 7796,
      " кно": 7797,
      " следующий": 7798,
      "полнения": 7799,
      "няются": 7800,
      " последних": 7801,
      " эффектив": 7802,
      "ct": 7803,
      "эр": 7804,
      "говари": 7805,
      " наслед": 7806,
      " пафо": 7807,
      "сках": 7808,
      " вече": 7809,
      "езда": 7810,
      " качество": 7811,
      "гий": 7812,
      " список": 7813,
      "най": 7814,
      "теры": 7815,
      "дился": 7816,
      " написал": 7817,
      " обеща": 7818,
      " середине": 7819,
      "мия": 7820,
      " подтвер": 7821,
      " Особенно": 7822,
      "тными": 7823,
      "енных": 7824,
      " кле": 7825,
      " мужчина": 7826,
      " напад": 7827,
      " Же": 7828,
      " книг": 7829,
      " идея": 7830,
      "дцати": 7831,
      " порядке": 7832,
      "Кроме": 7833,
      "шками": 7834,
      " эн": 7835,
      "гал": 7836,
      " Гит": 7837,
      " пусть": 7838,
      "щены": 7839,
      "мок": 7840,
      "неве": 7841,
      " будущее": 7842,
      "тём": 7843,
      " такими": 7844,
      " философи": 7845,
      "Об": 7846,
      " втор": 7847,
      " заметить": 7848,
      "ast": 7849,
      " тяжё": 7850,
      "рака": 7851,
      " мотива": 7852,
      "менить": 7853,
      " использования": 7854,
      " ужас": 7855,
      " президент": 7856,
      " статью": 7857,
      "ran": 7858,
      " пове": 7859,
      "воро": 7860,
      " записа": 7861,
      " Эль": 7862,
      "тации": 7863,
      "тывает": 7864,
      " сексу": 7865,
      "Tube": 7866,
      "ge": 7867,
      "пен": 7868,
      " Мета": 7869,
      " головы": 7870,
      "менее": 7871,
      "Ве": 7872,
      "чник": 7873,
      "кол": 7874,
      " серви": 7875,
      " трудно": 7876,
      " команди": 7877,
      "Ещё": 7878,
      " сом": 7879,
      " носи": 7880,
      " Ещё": 7881,
      " броня": 7882,
      " „": 7883,
      " суро": 7884,
      " показать": 7885,
      " лёг": 7886,
      " потен": 7887,
      "тания": 7888,
      "казывает": 7889,
      " Хар": 7890,
      " создал": 7891,
      "Мы": 7892,
      " запро": 7893,
      " русского": 7894,
      " бля": 7895,
      " руками": 7896,
      " Москве": 7897,
      "бэ": 7898,
      " последнего": 7899,
      " четвер": 7900,
      " будто": 7901,
      "чан": 7902,
      " вышло": 7903,
      " наличие": 7904,
      "народ": 7905,
      "даль": 7906,
      "водят": 7907,
      "стям": 7908,
      " противополо": 7909,
      " добав": 7910,
      " идти": 7911,
      "rand": 7912,
      "бления": 7913,
      "толи": 7914,
      "жих": 7915,
      " июня": 7916,
      "значально": 7917,
      " Смер": 7918,
      " бою": 7919,
      " темпера": 7920,
      "эль": 7921,
      "бок": 7922,
      " очевид": 7923,
      "теров": 7924,
      " Ав": 7925,
      " популярности": 7926,
      " гигант": 7927,
      "тво": 7928,
      " сне": 7929,
      " выго": 7930,
      " отношение": 7931,
      " Этот": 7932,
      " производства": 7933,
      " деятельности": 7934,
      "женных": 7935,
      " главных": 7936,
      "вшаяся": 7937,
      " удоволь": 7938,
      " крайней": 7939,
      " торго": 7940,
      " мяг": 7941,
      "полнение": 7942,
      " требует": 7943,
      "НА": 7944,
      " незна": 7945,
      "шил": 7946,
      "пами": 7947,
      " прежде": 7948,
      " последней": 7949,
      " сообщи": 7950,
      "бревиа": 7951,
      " единственный": 7952,
      " данные": 7953,
      "ьте": 7954,
      " выстре": 7955,
      "ённые": 7956,
      " января": 7957,
      "е-": 7958,
      "виду": 7959,
      " дают": 7960,
      " Разу": 7961,
      " Путин": 7962,
      " справедливо": 7963,
      " сва": 7964,
      " опа": 7965,
      " дета": 7966,
      " нер": 7967,
      " Очень": 7968,
      " приводит": 7969,
      " режисс": 7970,
      " зомби": 7971,
      "бере": 7972,
      " фэнтези": 7973,
      " серий": 7974,
      "com": 7975,
      " ока": 7976,
      "юрьма": 7977,
      "Впрочем": 7978,
      " достой": 7979,
      " голос": 7980,
      " статья": 7981,
      " нака": 7982,
      "жие": 7983,
      " полный": 7984,
      " использование": 7985,
      "лили": 7986,
      "стья": 7987,
      "клад": 7988,
      " разумеется": 7989,
      " госпо": 7990,
      " арти": 7991,
      " зависит": 7992,
      " Злобный": 7993,
      " сравнению": 7994,
      " проявля": 7995,
      " убивает": 7996,
      " играет": 7997,
      "ос": 7998,
      "вии": 7999,
      "жешь": 8000,
      " сочета": 8001,
      " словами": 8002,
      " современных": 8003,
      "St": 8004,
      " нач": 8005,
      "рим": 8006,
      " видит": 8007,
      " получа": 8008,
      " Пес": 8009,
      " рейти": 8010,
      "ark": 8011,
      "Ти": 8012,
      "indows": 8013,
      " проще": 8014,
      "щика": 8015,
      " Игра": 8016,
      " засе": 8017,
      " данных": 8018,
      " информацию": 8019,
      "The": 8020,
      " интересно": 8021,
      " сыгра": 8022,
      "Ла": 8023,
      "стые": 8024,
      " кара": 8025,
      " понял": 8026,
      "ьер": 8027,
      " голове": 8028,
      " заниматься": 8029,
      " появляются": 8030,
      " ще": 8031,
      " могла": 8032,
      "гали": 8033,
      "пиз": 8034,
      "ванные": 8035,
      " Может": 8036,
      " движения": 8037,
      " животных": 8038,
      " Второй": 8039,
      "вла": 8040,
      "шные": 8041,
      "това": 8042,
      " расы": 8043,
      "вян": 8044,
      " следова": 8045,
      "енные": 8046,
      " промыш": 8047,
      " началась": 8048,
      " Sh": 8049,
      "фона": 8050,
      " наказа": 8051,
      " Среди": 8052,
      "няться": 8053,
      "щено": 8054,
      " одни": 8055,
      " получила": 8056,
      " голосо": 8057,
      " появления": 8058,
      " искать": 8059,
      " анима": 8060,
      " явление": 8061,
      "ковать": 8062,
      "чих": 8063,
      " моря": 8064,
      "пар": 8065,
      " резко": 8066,
      " предмет": 8067,
      " самих": 8068,
      "ляет": 8069,
      " Дэ": 8070,
      " подчи": 8071,
      "ity": 8072,
      " Китай": 8073,
      " ван": 8074,
      "дая": 8075,
      "тился": 8076,
      "дие": 8077,
      " решения": 8078,
      " 2018": 8079,
      " сына": 8080,
      " самим": 8081,
      " режим": 8082,
      " выбор": 8083,
      " Ch": 8084,
      " узнать": 8085,
      " YouTube": 8086,
      "up": 8087,
      "йдет": 8088,
      " мозга": 8089,
      " периодически": 8090,
      " оцен": 8091,
      "стам": 8092,
      " жанр": 8093,
      "тяги": 8094,
      "оте": 8095,
      " жанре": 8096,
      " придётся": 8097,
      "qu": 8098,
      " похуй": 8099,
      " намекает": 8100,
      " находятся": 8101,
      " карь": 8102,
      " фла": 8103,
      " Ог": 8104,
      " остался": 8105,
      " жё": 8106,
      " числа": 8107,
      " бессмыслен": 8108,
      "ново": 8109,
      "ради": 8110,
      "зис": 8111,
      " фир": 8112,
      "дроб": 8113,
      "всегда": 8114,
      " предела": 8115,
      " жанра": 8116,
      "щер": 8117,
      "альную": 8118,
      " фай": 8119,
      " ров": 8120,
      "iz": 8121,
      "листи": 8122,
      " Дан": 8123,
      "ступления": 8124,
      "енси": 8125,
      "зами": 8126,
      "станов": 8127,
      " Ши": 8128,
      " послу": 8129,
      " Ай": 8130,
      "жается": 8131,
      " похи": 8132,
      " работе": 8133,
      "тельность": 8134,
      " рук": 8135,
      " i": 8136,
      "ссы": 8137,
      " канди": 8138,
      " поднима": 8139,
      " предме": 8140,
      " иллю": 8141,
      " моди": 8142,
      " президента": 8143,
      "меча": 8144,
      " русские": 8145,
      " увидеть": 8146,
      " широко": 8147,
      " Бес": 8148,
      " добавля": 8149,
      " старые": 8150,
      "датель": 8151,
      " обстоя": 8152,
      " сущ": 8153,
      " Земли": 8154,
      "борато": 8155,
      "щении": 8156,
      " поря": 8157,
      "руются": 8158,
      "сколько": 8159,
      " видно": 8160,
      "OM": 8161,
      "ждении": 8162,
      " попасть": 8163,
      " желание": 8164,
      " Дар": 8165,
      " согласно": 8166,
      " долларов": 8167,
      "возмо": 8168,
      "lo": 8169,
      "Всё": 8170,
      " заре": 8171,
      " рождения": 8172,
      " каждом": 8173,
      " посети": 8174,
      " пожи": 8175,
      "вился": 8176,
      "стил": 8177,
      " согласи": 8178,
      "жению": 8179,
      "юрем": 8180,
      "тивные": 8181,
      " трех": 8182,
      " программы": 8183,
      " старых": 8184,
      "спи": 8185,
      " приё": 8186,
      "нью": 8187,
      "началу": 8188,
      " землю": 8189,
      " принято": 8190,
      " Человек": 8191,
      "Ча": 8192,
      " Шу": 8193,
      " стороне": 8194,
      " попадает": 8195,
      " песня": 8196,
      " струк": 8197,
      "твор": 8198,
      " фрак": 8199,
      " Два": 8200,
      " th": 8201,
      "сюда": 8202,
      "»:": 8203,
      " неде": 8204,
      "делы": 8205,
      " Кан": 8206,
      " имели": 8207,
      " Герои": 8208,
      " некое": 8209,
      "против": 8210,
      "нку": 8211,
      " джу": 8212,
      " пират": 8213,
      " усили": 8214,
      " занимается": 8215,
      " Японии": 8216,
      "бен": 8217,
      "ёд": 8218,
      " самолё": 8219,
      " рим": 8220,
      " гномы": 8221,
      " млад": 8222,
      " претен": 8223,
      "вшую": 8224,
      " оттуда": 8225,
      " De": 8226,
      " короля": 8227,
      " теории": 8228,
      " сокра": 8229,
      " вернуть": 8230,
      " ЖЖ": 8231,
      " сердце": 8232,
      " прикры": 8233,
      " Звёз": 8234,
      " класса": 8235,
      " комик": 8236,
      " кандида": 8237,
      " каком": 8238,
      "ходом": 8239,
      "няли": 8240,
      "женный": 8241,
      " 9000": 8242,
      " отечествен": 8243,
      " шлю": 8244,
      " Th": 8245,
      " снаря": 8246,
      "призрак": 8247,
      "вшее": 8248,
      " неви": 8249,
      " вечно": 8250,
      " инду": 8251,
      " началось": 8252,
      "емым": 8253,
      " хороший": 8254,
      " главной": 8255,
      " пору": 8256,
      "ждать": 8257,
      " командо": 8258,
      " электри": 8259,
      " учени": 8260,
      "ox": 8261,
      "вича": 8262,
      " используют": 8263,
      " машину": 8264,
      " городов": 8265,
      " ноября": 8266,
      " опла": 8267,
      "лят": 8268,
      " быстрее": 8269,
      "руппа": 8270,
      " Владимир": 8271,
      " ассо": 8272,
      " правила": 8273,
      "йка": 8274,
      "крат": 8275,
      " Тол": 8276,
      " двой": 8277,
      " Фор": 8278,
      " пехо": 8279,
      " книге": 8280,
      " результат": 8281,
      " Александр": 8282,
      " заклина": 8283,
      "ix": 8284,
      " отста": 8285,
      "нула": 8286,
      "нял": 8287,
      "следова": 8288,
      " хотели": 8289,
      "обла": 8290,
      " ограничи": 8291,
      "!».": 8292,
      "Ар": 8293,
      "Авто": 8294,
      " ничем": 8295,
      "тивных": 8296,
      " вернуться": 8297,
      "ждый": 8298,
      " оху": 8299,
      "лова": 8300,
      " переме": 8301,
      "вторых": 8302,
      " большие": 8303,
      " мозг": 8304,
      "дня": 8305,
      " способности": 8306,
      " православ": 8307,
      " Возможно": 8308,
      "йо": 8309,
      " ада": 8310,
      " Еги": 8311,
      " Тре": 8312,
      "тельными": 8313,
      " Импера": 8314,
      " рамках": 8315,
      " свали": 8316,
      "рана": 8317,
      " эфи": 8318,
      "доби": 8319,
      " Рес": 8320,
      " годах": 8321,
      " Al": 8322,
      " интервью": 8323,
      "Пу": 8324,
      " прочего": 8325,
      "лизация": 8326,
      " ясно": 8327,
      " контроли": 8328,
      " проста": 8329,
      " дочь": 8330,
      " броса": 8331,
      " культур": 8332,
      " посмотреть": 8333,
      " кровь": 8334,
      " целый": 8335,
      " корабли": 8336,
      "КО": 8337,
      "диться": 8338,
      " привлека": 8339,
      "части": 8340,
      " Кстати": 8341,
      " рез": 8342,
      "ленную": 8343,
      " необы": 8344,
      " спраши": 8345,
      " заявил": 8346,
      " Q": 8347,
      "дите": 8348,
      " Три": 8349,
      " корпора": 8350,
      " нравится": 8351,
      " живу": 8352,
      "центри": 8353,
      " нормально": 8354,
      " собрать": 8355,
      " лен": 8356,
      "мести": 8357,
      " относится": 8358,
      " виду": 8359,
      " читать": 8360,
      " требуется": 8361,
      " одинако": 8362,
      " нега": 8363,
      " ноги": 8364,
      " Потому": 8365,
      " расследо": 8366,
      " сильнее": 8367,
      "виков": 8368,
      "сыпа": 8369,
      " Такие": 8370,
      " немед": 8371,
      "ффи": 8372,
      " способны": 8373,
      "стр": 8374,
      "слов": 8375,
      "ятия": 8376,
      " Мер": 8377,
      " остались": 8378,
      "форм": 8379,
      " молоды": 8380,
      "рет": 8381,
      " начиная": 8382,
      "неш": 8383,
      " подписа": 8384,
      " первое": 8385,
      "женные": 8386,
      " земле": 8387,
      " банди": 8388,
      "тли": 8389,
      " пола": 8390,
      " новое": 8391,
      " отправляется": 8392,
      " неизвестно": 8393,
      "лег": 8394,
      " ля": 8395,
      " иной": 8396,
      "шали": 8397,
      " Рус": 8398,
      " Or": 8399,
      "Пере": 8400,
      "вому": 8401,
      "нулись": 8402,
      "ждается": 8403,
      "гор": 8404,
      " кня": 8405,
      " Осо": 8406,
      "жиданно": 8407,
      " легендар": 8408,
      " получилось": 8409,
      "вшейся": 8410,
      "АЗ": 8411,
      "нение": 8412,
      "покали": 8413,
      "ry": 8414,
      "кции": 8415,
      "ссов": 8416,
      " кот": 8417,
      " аргу": 8418,
      "ступление": 8419,
      " предупре": 8420,
      " наси": 8421,
      " това": 8422,
      " гром": 8423,
      " модели": 8424,
      " появилось": 8425,
      " российской": 8426,
      "чению": 8427,
      " авторы": 8428,
      " Windows": 8429,
      " острова": 8430,
      " Сар": 8431,
      " новым": 8432,
      " инф": 8433,
      "хло": 8434,
      " пья": 8435,
      "мами": 8436,
      " пала": 8437,
      " обычных": 8438,
      " попал": 8439,
      "ire": 8440,
      "пки": 8441,
      " отряд": 8442,
      " 24": 8443,
      " знал": 8444,
      "шё": 8445,
      "лож": 8446,
      " Помимо": 8447,
      "ционные": 8448,
      " пят": 8449,
      " уму": 8450,
      " Слу": 8451,
      "тивной": 8452,
      "гласно": 8453,
      " медве": 8454,
      "дли": 8455,
      " разгово": 8456,
      " сильный": 8457,
      " Пра": 8458,
      "ванных": 8459,
      " продолжает": 8460,
      "нется": 8461,
      " покры": 8462,
      " Собственно": 8463,
      " Европы": 8464,
      "чера": 8465,
      "рована": 8466,
      " пиздец": 8467,
      "ЕН": 8468,
      " Зна": 8469,
      " Россий": 8470,
      " конкур": 8471,
      " атмосф": 8472,
      " эли": 8473,
      "шев": 8474,
      " пояс": 8475,
      " Тай": 8476,
      " существуют": 8477,
      "вающий": 8478,
      " отка": 8479,
      " мужчины": 8480,
      "lay": 8481,
      " теме": 8482,
      " здра": 8483,
      "суль": 8484,
      "|>«": 8485,
      " планете": 8486,
      " быдла": 8487,
      " опо": 8488,
      " Ква": 8489,
      " пира": 8490,
      " паралле": 8491,
      " мыш": 8492,
      " вероятно": 8493,
      " бывают": 8494,
      " зи": 8495,
      " пытались": 8496,
      " качествен": 8497,
      " текст": 8498,
      " элемента": 8499,
      "ex": 8500,
      "меран": 8501,
      " техники": 8502,
      " 95": 8503,
      "деров": 8504,
      " технологии": 8505,
      " Википедии": 8506,
      "Ан": 8507,
      " находит": 8508,
      " мод": 8509,
      " новая": 8510,
      " ходу": 8511,
      " объяв": 8512,
      "шинство": 8513,
      " 21": 8514,
      "ровая": 8515,
      " осве": 8516,
      " определя": 8517,
      " боевых": 8518,
      "ковых": 8519,
      " нано": 8520,
      " хочется": 8521,
      " An": 8522,
      "это": 8523,
      "стар": 8524,
      " боги": 8525,
      " месяцев": 8526,
      " отношении": 8527,
      "ud": 8528,
      "пь": 8529,
      " приклю": 8530,
      " пароди": 8531,
      "честву": 8532,
      " сеттин": 8533,
      " адеква": 8534,
      " линии": 8535,
      "ствовали": 8536,
      " 2007": 8537,
      " ответствен": 8538,
      " существования": 8539,
      " чрез": 8540,
      " получения": 8541,
      " Бога": 8542,
      "вшимся": 8543,
      " борьбы": 8544,
      " любые": 8545,
      " катастро": 8546,
      " нехи": 8547,
      "стики": 8548,
      " данной": 8549,
      " домаш": 8550,
      " нашего": 8551,
      " заставля": 8552,
      " Анг": 8553,
      " реальной": 8554,
      " однажды": 8555,
      "стные": 8556,
      "тельности": 8557,
      " правительство": 8558,
      "служи": 8559,
      " рок": 8560,
      " цензу": 8561,
      " ритуа": 8562,
      " Йо": 8563,
      " потер": 8564,
      " местные": 8565,
      " называть": 8566,
      "теи": 8567,
      "чив": 8568,
      " шах": 8569,
      " Республи": 8570,
      "Ди": 8571,
      " выделя": 8572,
      " подви": 8573,
      " иск": 8574,
      " дире": 8575,
      "ЛО": 8576,
      " огромное": 8577,
      "нест": 8578,
      " Рим": 8579,
      "████": 8580,
      "ума": 8581,
      " прось": 8582,
      " Эти": 8583,
      " пиндо": 8584,
      " термина": 8585,
      " ключе": 8586,
      "13": 8587,
      " схо": 8588,
      " дни": 8589,
      " прили": 8590,
      "ссию": 8591,
      " закона": 8592,
      " Земле": 8593,
      " именем": 8594,
      "if": 8595,
      "плей": 8596,
      " небес": 8597,
      " гар": 8598,
      "цина": 8599,
      " мастер": 8600,
      " возгла": 8601,
      "art": 8602,
      " связь": 8603,
      " детек": 8604,
      " культуры": 8605,
      " Анониму": 8606,
      " трак": 8607,
      " ночь": 8608,
      " Ужа": 8609,
      "стых": 8610,
      " третьей": 8611,
      " небольшой": 8612,
      "сной": 8613,
      "язви": 8614,
      " замети": 8615,
      " Ке": 8616,
      " хво": 8617,
      " десан": 8618,
      " потенци": 8619,
      " стаби": 8620,
      " состояние": 8621,
      " современной": 8622,
      " фаши": 8623,
      " заключается": 8624,
      "рэ": 8625,
      "виться": 8626,
      "врати": 8627,
      " Земля": 8628,
      " четвёр": 8629,
      " воин": 8630,
      " Иван": 8631,
      " помогает": 8632,
      " лам": 8633,
      " транспорт": 8634,
      "бка": 8635,
      " Гре": 8636,
      " Запа": 8637,
      " взрос": 8638,
      " Страшный": 8639,
      ".»": 8640,
      "??": 8641,
      "ail": 8642,
      " кое-": 8643,
      " боевой": 8644,
      " десять": 8645,
      "ood": 8646,
      "Дру": 8647,
      "рева": 8648,
      " 60": 8649,
      "Че": 8650,
      " идей": 8651,
      " манья": 8652,
      " показывает": 8653,
      "чти": 8654,
      "дона": 8655,
      " присутствует": 8656,
      " касается": 8657,
      "иболее": 8658,
      " развед": 8659,
      "ждений": 8660,
      " информация": 8661,
      " возраста": 8662,
      " июля": 8663,
      "рым": 8664,
      " Стре": 8665,
      " разби": 8666,
      " создан": 8667,
      " прошлом": 8668,
      " глоба": 8669,
      "дди": 8670,
      "кет": 8671,
      " опу": 8672,
      " выво": 8673,
      " Ива": 8674,
      " песен": 8675,
      " предназна": 8676,
      " звёз": 8677,
      "вяз": 8678,
      " Нор": 8679,
      " ход": 8680,
      " техника": 8681,
      " броне": 8682,
      " способом": 8683,
      " безопасности": 8684,
      "вив": 8685,
      " номер": 8686,
      " батт": 8687,
      "ith": 8688,
      " подзем": 8689,
      " Через": 8690,
      " завое": 8691,
      "шит": 8692,
      "челове": 8693,
      " деше": 8694,
      "брасы": 8695,
      " плохие": 8696,
      " хватает": 8697,
      " голов": 8698,
      "люс": 8699,
      " буты": 8700,
      " создание": 8701,
      " существ": 8702,
      "ционной": 8703,
      "ступить": 8704,
      "Несмотря": 8705,
      " минима": 8706,
      " Прокля": 8707,
      " стрель": 8708,
      "меранг": 8709,
      "\",": 8710,
      "Бе": 8711,
      " неа": 8712,
      "мить": 8713,
      " жало": 8714,
      " символизи": 8715,
      "чиво": 8716,
      "менти": 8717,
      "зок": 8718,
      " живых": 8719,
      " большого": 8720,
      "ппи": 8721,
      "риться": 8722,
      "рыва": 8723,
      "чивать": 8724,
      "веро": 8725,
      " разного": 8726,
      " Джа": 8727,
      " Причём": 8728,
      " повторя": 8729,
      "Глав": 8730,
      " поса": 8731,
      " бре": 8732,
      "ственные": 8733,
      " энергии": 8734,
      " вор": 8735,
      " пережи": 8736,
      " путём": 8737,
      " Первый": 8738,
      " космическая": 8739,
      " услы": 8740,
      " поза": 8741,
      " услу": 8742,
      " Ген": 8743,
      " видел": 8744,
      " адрес": 8745,
      "быд": 8746,
      " лаборато": 8747,
      " 70": 8748,
      " Пло": 8749,
      "ord": 8750,
      " центре": 8751,
      " научи": 8752,
      "др": 8753,
      "хой": 8754,
      "зит": 8755,
      "ленным": 8756,
      " пау": 8757,
      "oft": 8758,
      "воло": 8759,
      " отдель": 8760,
      " слову": 8761,
      " напо": 8762,
      "леты": 8763,
      " Sp": 8764,
      "пал": 8765,
      " пан": 8766,
      " Конечно": 8767,
      " осла": 8768,
      "Под": 8769,
      " обычный": 8770,
      " форми": 8771,
      " семья": 8772,
      " Тур": 8773,
      "право": 8774,
      " враже": 8775,
      "вёл": 8776,
      " порт": 8777,
      "жество": 8778,
      " Лор": 8779,
      "ant": 8780,
      " будущем": 8781,
      "лизма": 8782,
      " команду": 8783,
      " противоре": 8784,
      " хитро": 8785,
      " саму": 8786,
      " креп": 8787,
      " драконов": 8788,
      "ok": 8789,
      " вось": 8790,
      " силами": 8791,
      " группу": 8792,
      " разработчики": 8793,
      " видом": 8794,
      "ждён": 8795,
      " сты": 8796,
      " ам": 8797,
      "ore": 8798,
      " одному": 8799,
      " мясо": 8800,
      "благо": 8801,
      " поо": 8802,
      " мани": 8803,
      " могло": 8804,
      "ссажи": 8805,
      " молодо": 8806,
      " миллиар": 8807,
      " Жуткий": 8808,
      " экипа": 8809,
      "диа": 8810,
      " Поня": 8811,
      "довлет": 8812,
      " гомосексу": 8813,
      " запла": 8814,
      " Ска": 8815,
      "тури": 8816,
      " использованием": 8817,
      " Высо": 8818,
      " выражение": 8819,
      "гети": 8820,
      " активи": 8821,
      " Сов": 8822,
      " победить": 8823,
      " отличаются": 8824,
      " безум": 8825,
      "OS": 8826,
      "Пи": 8827,
      "уна": 8828,
      " мес": 8829,
      " школы": 8830,
      " особенности": 8831,
      " пишет": 8832,
      "товой": 8833,
      " догово": 8834,
      " Име": 8835,
      " крупных": 8836,
      "Им": 8837,
      "ул": 8838,
      "довать": 8839,
      " разво": 8840,
      " Тар": 8841,
      "утбо": 8842,
      " предлагает": 8843,
      " трени": 8844,
      " богов": 8845,
      " аббревиа": 8846,
      " станция": 8847,
      " скорость": 8848,
      " Большое": 8849,
      " наби": 8850,
      " наших": 8851,
      " выло": 8852,
      " Эта": 8853,
      " шанс": 8854,
      " работают": 8855,
      "Сто": 8856,
      " двор": 8857,
      "жели": 8858,
      " бывший": 8859,
      " человеку": 8860,
      " Нью": 8861,
      " разобра": 8862,
      " Рас": 8863,
      " юни": 8864,
      " девушек": 8865,
      " имена": 8866,
      " жители": 8867,
      "ровался": 8868,
      " попада": 8869,
      "ерев": 8870,
      " никого": 8871,
      " взял": 8872,
      "мм": 8873,
      "боя": 8874,
      "дум": 8875,
      " жени": 8876,
      " успел": 8877,
      " эффект": 8878,
      "22": 8879,
      "гнуть": 8880,
      "жерт": 8881,
      "хан": 8882,
      " бен": 8883,
      "кур": 8884,
      " Основ": 8885,
      "цах": 8886,
      " развитие": 8887,
      " ПО": 8888,
      " Сти": 8889,
      "сай": 8890,
      " записи": 8891,
      " стере": 8892,
      "рота": 8893,
      " Мон": 8894,
      " концу": 8895,
      " влияние": 8896,
      " запо": 8897,
      " экрани": 8898,
      " одоб": 8899,
      "сток": 8900,
      " Поскольку": 8901,
      " Здесь": 8902,
      " игроки": 8903,
      " развлечений": 8904,
      "дзи": 8905,
      "битель": 8906,
      "тывать": 8907,
      " дел": 8908,
      " правительства": 8909,
      " брата": 8910,
      " Сейчас": 8911,
      "стки": 8912,
      " атаки": 8913,
      " заго": 8914,
      " Пока": 8915,
      " трав": 8916,
      " солн": 8917,
      " набира": 8918,
      "луа": 8919,
      " Кана": 8920,
      " наличии": 8921,
      "бь": 8922,
      "зра": 8923,
      "пто": 8924,
      "тения": 8925,
      "логов": 8926,
      "лару": 8927,
      " миром": 8928,
      " Воло": 8929,
      " немно": 8930,
      " Франции": 8931,
      "ъек": 8932,
      " Зо": 8933,
      " вспомина": 8934,
      "емое": 8935,
      " данного": 8936,
      " контроль": 8937,
      "ost": 8938,
      "over": 8939,
      "рута": 8940,
      "держать": 8941,
      "ice": 8942,
      " употребля": 8943,
      " инопланетя": 8944,
      " непосредственно": 8945,
      "пит": 8946,
      "ленное": 8947,
      " Поль": 8948,
      " мимо": 8949,
      " скорости": 8950,
      "тится": 8951,
      " раду": 8952,
      "мато": 8953,
      " отме": 8954,
      " выки": 8955,
      "aka": 8956,
      "шко": 8957,
      " записы": 8958,
      " обнов": 8959,
      " Бен": 8960,
      " Малень": 8961,
      " огонь": 8962,
      "рные": 8963,
      " героем": 8964,
      " порта": 8965,
      " цве": 8966,
      " строго": 8967,
      " позиции": 8968,
      " выса": 8969,
      " видеть": 8970,
      " знаком": 8971,
      " лома": 8972,
      " благород": 8973,
      " корпу": 8974,
      " принять": 8975,
      " живёт": 8976,
      "лда": 8977,
      "чане": 8978,
      "новения": 8979,
      " данным": 8980,
      "дную": 8981,
      " прико": 8982,
      "стический": 8983,
      " Позже": 8984,
      "етыре": 8985,
      " Ленин": 8986,
      "RL": 8987,
      " консер": 8988,
      " больших": 8989,
      " мото": 8990,
      "нув": 8991,
      "мену": 8992,
      "ходило": 8993,
      " оставля": 8994,
      " монстров": 8995,
      " аэро": 8996,
      "МО": 8997,
      "тни": 8998,
      "роп": 8999,
      " поц": 9000,
      " набе": 9001,
      " подраз": 9002,
      "тябре": 9003,
      " нуле": 9004,
      "спек": 9005,
      " термин": 9006,
      " жена": 9007,
      " говном": 9008,
      " for": 9009,
      " лют": 9010,
      "Жи": 9011,
      "ЧС": 9012,
      "блу": 9013,
      "рудо": 9014,
      " студии": 9015,
      " рассматри": 9016,
      "Га": 9017,
      " мешает": 9018,
      " вя": 9019,
      " звер": 9020,
      " Ат": 9021,
      "ровер": 9022,
      " количеством": 9023,
      " откровенно": 9024,
      " =": 9025,
      " отклю": 9026,
      " Пол": 9027,
      " волосы": 9028,
      " прика": 9029,
      " ,": 9030,
      "ip": 9031,
      " отправ": 9032,
      " Эй": 9033,
      " упоро": 9034,
      " биологи": 9035,
      " парня": 9036,
      "дение": 9037,
      "никах": 9038,
      " нужна": 9039,
      " систем": 9040,
      " подобное": 9041,
      " семь": 9042,
      " существование": 9043,
      " Джек": 9044,
      "лдфа": 9045,
      " бюджет": 9046,
      "тиков": 9047,
      " библи": 9048,
      " гряз": 9049,
      " исте": 9050,
      " проник": 9051,
      " обосно": 9052,
      "жку": 9053,
      "жом": 9054,
      "сим": 9055,
      " хар": 9056,
      " срач": 9057,
      "жок": 9058,
      "ец": 9059,
      " бои": 9060,
      " мат": 9061,
      " 193": 9062,
      "оса": 9063,
      "рани": 9064,
      " карт": 9065,
      "тул": 9066,
      " подъ": 9067,
      " частей": 9068,
      "крови": 9069,
      " российский": 9070,
      " привело": 9071,
      "зме": 9072,
      "стория": 9073,
      " пассажи": 9074,
      " вирту": 9075,
      "енью": 9076,
      " судя": 9077,
      " шести": 9078,
      "изм": 9079,
      "ществен": 9080,
      " лучших": 9081,
      " военной": 9082,
      " музыку": 9083,
      " чувства": 9084,
      "кера": 9085,
      " группе": 9086,
      " операции": 9087,
      " космические": 9088,
      " разными": 9089,
      " 22": 9090,
      " положение": 9091,
      " работал": 9092,
      " выпущен": 9093,
      " деятельность": 9094,
      " демонстри": 9095,
      " схва": 9096,
      " нашли": 9097,
      " решила": 9098,
      " англо": 9099,
      " дерь": 9100,
      "ew": 9101,
      "ob": 9102,
      "рится": 9103,
      " топо": 9104,
      " изгна": 9105,
      "зино": 9106,
      " получится": 9107,
      " общество": 9108,
      " другая": 9109,
      " непонятно": 9110,
      "ланд": 9111,
      " проро": 9112,
      "ровка": 9113,
      " получают": 9114,
      " исключением": 9115,
      " естествен": 9116,
      "Кто": 9117,
      "авто": 9118,
      "для": 9119,
      " Хро": 9120,
      " Был": 9121,
      " обезья": 9122,
      "чён": 9123,
      "ровой": 9124,
      "дай": 9125,
      "тельств": 9126,
      " русском": 9127,
      " срок": 9128,
      "рек": 9129,
      " отсы": 9130,
      "циали": 9131,
      " статей": 9132,
      " стол": 9133,
      " победи": 9134,
      " неожиданно": 9135,
      "НР": 9136,
      "сан": 9137,
      "дент": 9138,
      " случаи": 9139,
      " малолет": 9140,
      " Гарри": 9141,
      "гром": 9142,
      " Ель": 9143,
      " говорил": 9144,
      " высокой": 9145,
      " музыки": 9146,
      " Персона": 9147,
      " Москвы": 9148,
      "!»,": 9149,
      "mer": 9150,
      "нина": 9151,
      " собственного": 9152,
      "интересо": 9153,
      "Ге": 9154,
      "гка": 9155,
      "кнуть": 9156,
      " сохран": 9157,
      " фар": 9158,
      "жан": 9159,
      "цеп": 9160,
      "полнен": 9161,
      " канала": 9162,
      " причин": 9163,
      "тило": 9164,
      " Моло": 9165,
      " кажды": 9166,
      " ара": 9167,
      "дея": 9168,
      " дали": 9169,
      " сик": 9170,
      " удаётся": 9171,
      " король": 9172,
      "ехать": 9173,
      " атаку": 9174,
      " извра": 9175,
      " вещества": 9176,
      " военные": 9177,
      " франши": 9178,
      " помни": 9179,
      "тила": 9180,
      "кура": 9181,
      " Анти": 9182,
      "чешь": 9183,
      "ровала": 9184,
      "кал": 9185,
      " создавать": 9186,
      " обществе": 9187,
      "вокат": 9188,
      "ГМ": 9189,
      "гое": 9190,
      " модель": 9191,
      " сигна": 9192,
      "ществует": 9193,
      " собственный": 9194,
      "рованное": 9195,
      "out": 9196,
      " убийца": 9197,
      " имидж": 9198,
      " небо": 9199,
      " возвращается": 9200,
      " Афри": 9201,
      " дал": 9202,
      " чинов": 9203,
      " вторая": 9204,
      " выяснилось": 9205,
      " категории": 9206,
      " постра": 9207,
      " Оли": 9208,
      "мян": 9209,
      " Единствен": 9210,
      " можете": 9211,
      " поздно": 9212,
      " отдельные": 9213,
      "сво": 9214,
      "вами": 9215,
      "ere": 9216,
      " убивать": 9217,
      "ist": 9218,
      "банди": 9219,
      " вернулся": 9220,
      " взгляд": 9221,
      " пру": 9222,
      " зар": 9223,
      " кан": 9224,
      " дели": 9225,
      " воздей": 9226,
      " остается": 9227,
      " другую": 9228,
      "тите": 9229,
      "сора": 9230,
      " импер": 9231,
      " умеет": 9232,
      " изменения": 9233,
      "ковые": 9234,
      " Вскоре": 9235,
      "щал": 9236,
      " Естественно": 9237,
      "ell": 9238,
      " немедленно": 9239,
      "мол": 9240,
      "пания": 9241,
      " Древ": 9242,
      "лете": 9243,
      " Зато": 9244,
      " школе": 9245,
      " характерно": 9246,
      " недавно": 9247,
      "ери": 9248,
      " ини": 9249,
      " Тан": 9250,
      "хах": 9251,
      "пый": 9252,
      " кин": 9253,
      " объеди": 9254,
      " занимаются": 9255,
      "блоки": 9256,
      "ткой": 9257,
      " Кре": 9258,
      " фильмы": 9259,
      " машина": 9260,
      " Дело": 9261,
      " чудовищ": 9262,
      " k": 9263,
      " нра": 9264,
      " вымыш": 9265,
      " штам": 9266,
      " телефон": 9267,
      " царь": 9268,
      " порядок": 9269,
      " отмети": 9270,
      "ционе": 9271,
      " гос": 9272,
      " лову": 9273,
      " игровой": 9274,
      " специфи": 9275,
      "ock": 9276,
      "Пред": 9277,
      " покуп": 9278,
      " тупы": 9279,
      " оппонен": 9280,
      " щи": 9281,
      " бла": 9282,
      " заодно": 9283,
      "мыми": 9284,
      " лидер": 9285,
      "стояние": 9286,
      "водится": 9287,
      "щением": 9288,
      " вдох": 9289,
      "ниба": 9290,
      " заве": 9291,
      "рубе": 9292,
      " обма": 9293,
      " паци": 9294,
      " фанаты": 9295,
      " анге": 9296,
      "опа": 9297,
      "раста": 9298,
      "нек": 9299,
      "меру": 9300,
      "самбль": 9301,
      " память": 9302,
      " управления": 9303,
      "шная": 9304,
      " голу": 9305,
      " перен": 9306,
      " подпис": 9307,
      " агрессив": 9308,
      " рано": 9309,
      " своеобраз": 9310,
      " рекоменду": 9311,
      "жными": 9312,
      "ерь": 9313,
      " прими": 9314,
      " стоят": 9315,
      " шабло": 9316,
      "влечь": 9317,
      " альбом": 9318,
      " мёрт": 9319,
      "вена": 9320,
      "проек": 9321,
      " Ев": 9322,
      " человечество": 9323,
      "рена": 9324,
      " Почему": 9325,
      " хоте": 9326,
      " группи": 9327,
      " прошлого": 9328,
      " располага": 9329,
      " навсегда": 9330,
      "тир": 9331,
      " Ван": 9332,
      "человек": 9333,
      " вещей": 9334,
      " балан": 9335,
      " некоторым": 9336,
      " слабы": 9337,
      " составе": 9338,
      "ксе": 9339,
      " некро": 9340,
      " разы": 9341,
      " препо": 9342,
      " Джу": 9343,
      "чев": 9344,
      " жили": 9345,
      " дикта": 9346,
      "генера": 9347,
      "рье": 9348,
      "orld": 9349,
      "\".": 9350,
      "блон": 9351,
      "шена": 9352,
      " Тот": 9353,
      "печа": 9354,
      " шпи": 9355,
      " глуби": 9356,
      " канале": 9357,
      "чо": 9358,
      "ёбы": 9359,
      "деи": 9360,
      " приходи": 9361,
      "вере": 9362,
      " Кали": 9363,
      " Рай": 9364,
      " американский": 9365,
      " сеть": 9366,
      "чивает": 9367,
      " доктор": 9368,
      " Мин": 9369,
      " дает": 9370,
      "чую": 9371,
      " телеви": 9372,
      " рэ": 9373,
      " вслед": 9374,
      " писатель": 9375,
      "ect": 9376,
      " №": 9377,
      "коны": 9378,
      "вится": 9379,
      " Вен": 9380,
      " бабу": 9381,
      " представляют": 9382,
      "летия": 9383,
      "цвет": 9384,
      "шили": 9385,
      "ero": 9386,
      " волк": 9387,
      " ситуацию": 9388,
      " гости": 9389,
      " темати": 9390,
      " нище": 9391,
      " час": 9392,
      " всячески": 9393,
      "пры": 9394,
      "цкий": 9395,
      "щений": 9396,
      " камень": 9397,
      " бай": 9398,
      " Каз": 9399,
      " галакти": 9400,
      " рису": 9401,
      " режиме": 9402,
      " представитель": 9403,
      "  ": 9404,
      "зло": 9405,
      "ченным": 9406,
      "петь": 9407,
      " благополу": 9408,
      " Васи": 9409,
      " самостоятельно": 9410,
      "ly": 9411,
      "кле": 9412,
      "рал": 9413,
      " загру": 9414,
      " отвер": 9415,
      "нетов": 9416,
      " данном": 9417,
      " форуме": 9418,
      "ристокра": 9419,
      " неделю": 9420,
      " квест": 9421,
      "думан": 9422,
      " Ада": 9423,
      " радика": 9424,
      " нейтра": 9425,
      " попытка": 9426,
      " уверен": 9427,
      "сль": 9428,
      "oun": 9429,
      " принял": 9430,
      " Ex": 9431,
      " представители": 9432,
      " доме": 9433,
      " Спе": 9434,
      " друж": 9435,
      " меж": 9436,
      " организо": 9437,
      " отдельных": 9438,
      "вной": 9439,
      "фта": 9440,
      " старо": 9441,
      " написано": 9442,
      "тками": 9443,
      " удовлет": 9444,
      " кап": 9445,
      "жность": 9446,
      " видов": 9447,
      " среде": 9448,
      " неадеква": 9449,
      " направля": 9450,
      "бает": 9451,
      " любую": 9452,
      " игно": 9453,
      " ждать": 9454,
      " лопа": 9455,
      " колду": 9456,
      " пожалуй": 9457,
      "уда": 9458,
      " пости": 9459,
      "мут": 9460,
      " индиви": 9461,
      " слегка": 9462,
      "ртет": 9463,
      " увидел": 9464,
      " памяти": 9465,
      " сотрудни": 9466,
      "Ки": 9467,
      "гг": 9468,
      "рных": 9469,
      " мема": 9470,
      " обычные": 9471,
      " популярных": 9472,
      " фразы": 9473,
      " случилось": 9474,
      " относятся": 9475,
      " мужчин": 9476,
      " причиной": 9477,
      " контент": 9478,
      " теку": 9479,
      " лету": 9480,
      "шены": 9481,
      " торгов": 9482,
      "фикации": 9483,
      " репута": 9484,
      " самую": 9485,
      " интересу": 9486,
      " системе": 9487,
      " сообщения": 9488,
      " практике": 9489,
      "дробнее": 9490,
      "Основ": 9491,
      "сных": 9492,
      "тря": 9493,
      "тари": 9494,
      " провин": 9495,
      " точнее": 9496,
      " хле": 9497,
      " ваших": 9498,
      " останови": 9499,
      "жертво": 9500,
      "глу": 9501,
      "льник": 9502,
      " Тер": 9503,
      " руководи": 9504,
      "рея": 9505,
      " проби": 9506,
      " Пы": 9507,
      "сек": 9508,
      " общего": 9509,
      " грамот": 9510,
      " считая": 9511,
      " попросту": 9512,
      "НИ": 9513,
      "дельно": 9514,
      " романа": 9515,
      "ros": 9516,
      " публика": 9517,
      " баттх": 9518,
      "Кла": 9519,
      "шной": 9520,
      "вайте": 9521,
      " ног": 9522,
      "словно": 9523,
      " сообщает": 9524,
      " месяца": 9525,
      "рики": 9526,
      "без": 9527,
      "ломет": 9528,
      "тёр": 9529,
      " Нес": 9530,
      " парт": 9531,
      " глазах": 9532,
      "который": 9533,
      "60": 9534,
      "Кар": 9535,
      "ила": 9536,
      "деп": 9537,
      " исход": 9538,
      " дура": 9539,
      "ющаяся": 9540,
      "льд": 9541,
      " утвер": 9542,
      " удив": 9543,
      "альное": 9544,
      " англи": 9545,
      " ненависти": 9546,
      " Сергей": 9547,
      " казалось": 9548,
      "деся": 9549,
      " тен": 9550,
      "няка": 9551,
      " лиц": 9552,
      " муд": 9553,
      "ществ": 9554,
      " словом": 9555,
      " обыкно": 9556,
      " Чёрная": 9557,
      " аппара": 9558,
      "Ло": 9559,
      "енной": 9560,
      " призыва": 9561,
      "юту": 9562,
      "возь": 9563,
      " посредством": 9564,
      "чало": 9565,
      "сторо": 9566,
      "гим": 9567,
      " российского": 9568,
      " цивилизации": 9569,
      "декс": 9570,
      " пришли": 9571,
      "зиа": 9572,
      " люто": 9573,
      " формы": 9574,
      " Стар": 9575,
      " Магический": 9576,
      "Ха": 9577,
      "бление": 9578,
      "тивы": 9579,
      "бота": 9580,
      " приключения": 9581,
      " Филь": 9582,
      " семье": 9583,
      " родился": 9584,
      " евреев": 9585,
      "жке": 9586,
      " натура": 9587,
      "тером": 9588,
      " футбо": 9589,
      " советских": 9590,
      " машин": 9591,
      " сопротив": 9592,
      "гото": 9593,
      "вале": 9594,
      " прозви": 9595,
      " креди": 9596,
      "дешь": 9597,
      " Спа": 9598,
      " русской": 9599,
      " неле": 9600,
      " обвин": 9601,
      "тывая": 9602,
      " ГГ": 9603,
      " онлайн": 9604,
      " шесть": 9605,
      "тян": 9606,
      "лезный": 9607,
      " сказано": 9608,
      " 195": 9609,
      " Одна": 9610,
      " Be": 9611,
      " настоящего": 9612,
      "!!!!": 9613,
      " убо": 9614,
      " ниж": 9615,
      " правил": 9616,
      " головой": 9617,
      " хорошие": 9618,
      " преступления": 9619,
      " лы": 9620,
      " звучит": 9621,
      " интернете": 9622,
      " революции": 9623,
      "нём": 9624,
      "тес": 9625,
      "ang": 9626,
      " юри": 9627,
      "рованной": 9628,
      " представителей": 9629,
      " винтов": 9630,
      "az": 9631,
      " пошли": 9632,
      " коме": 9633,
      " проходит": 9634,
      " раско": 9635,
      " хро": 9636,
      "ator": 9637,
      " необходимости": 9638,
      " Глаза": 9639,
      "нень": 9640,
      "сного": 9641,
      " знаю": 9642,
      " втором": 9643,
      " понятия": 9644,
      " пользоваться": 9645,
      " прекрасно": 9646,
      " гоп": 9647,
      "ческому": 9648,
      " верто": 9649,
      " платфор": 9650,
      "io": 9651,
      "Се": 9652,
      "юсь": 9653,
      " брен": 9654,
      " невы": 9655,
      "контак": 9656,
      " авторов": 9657,
      " команда": 9658,
      " жёст": 9659,
      "ЕР": 9660,
      " побо": 9661,
      "тической": 9662,
      " автобу": 9663,
      " любое": 9664,
      " жизнью": 9665,
      " загадо": 9666,
      " догада": 9667,
      "ure": 9668,
      "ано": 9669,
      "руса": 9670,
      " водо": 9671,
      " испан": 9672,
      " финансо": 9673,
      " зарпла": 9674,
      " небе": 9675,
      " членов": 9676,
      "ило": 9677,
      "голо": 9678,
      " отре": 9679,
      " води": 9680,
      "шина": 9681,
      " рассу": 9682,
      " симпа": 9683,
      " Часто": 9684,
      " моде": 9685,
      " обли": 9686,
      " депута": 9687,
      "образи": 9688,
      " средств": 9689,
      " распространён": 9690,
      " Чёрный": 9691,
      " ня": 9692,
      " поняли": 9693,
      " деревя": 9694,
      " дальнейшем": 9695,
      " неоднократно": 9696,
      "ЧСХ": 9697,
      "tp": 9698,
      "ВА": 9699,
      "нную": 9700,
      "ёк": 9701,
      " тря": 9702,
      " стена": 9703,
      "нейших": 9704,
      " резер": 9705,
      " противников": 9706,
      " Само": 9707,
      " американских": 9708,
      "порта": 9709,
      "емости": 9710,
      "фера": 9711,
      " обязан": 9712,
      " сф": 9713,
      " заму": 9714,
      "сист": 9715,
      " действу": 9716,
      "ower": 9717,
      "Игра": 9718,
      "цла": 9719,
      " выклады": 9720,
      " делом": 9721,
      " Глу": 9722,
      " третий": 9723,
      " Квартет": 9724,
      "ентов": 9725,
      " Лур": 9726,
      " региона": 9727,
      "вные": 9728,
      " набра": 9729,
      "писи": 9730,
      " известные": 9731,
      "ставки": 9732,
      " основных": 9733,
      " огромный": 9734,
      "ющему": 9735,
      " пони": 9736,
      " Вра": 9737,
      " изна": 9738,
      " визу": 9739,
      " концер": 9740,
      "ванная": 9741,
      " превращается": 9742,
      " тюрьма": 9743,
      " услов": 9744,
      " ракет": 9745,
      " пак": 9746,
      " бабла": 9747,
      " ресурсов": 9748,
      " Волшеб": 9749,
      "ДР": 9750,
      "стных": 9751,
      "жек": 9752,
      "енери": 9753,
      " убил": 9754,
      " восполь": 9755,
      " Неформал": 9756,
      " прове": 9757,
      " подряд": 9758,
      "зий": 9759,
      " Эн": 9760,
      " стихий": 9761,
      " аудитории": 9762,
      "40": 9763,
      "шных": 9764,
      " смени": 9765,
      "произ": 9766,
      " прочим": 9767,
      " отдельно": 9768,
      " вдо": 9769,
      "мороз": 9770,
      "порт": 9771,
      "гию": 9772,
      " обладают": 9773,
      " ближе": 9774,
      " повер": 9775,
      " погру": 9776,
      "вано": 9777,
      "сый": 9778,
      " глава": 9779,
      " творчество": 9780,
      "эк": 9781,
      " беспре": 9782,
      " массы": 9783,
      " станции": 9784,
      "сена": 9785,
      "чника": 9786,
      " просит": 9787,
      " актё": 9788,
      " международ": 9789,
      " версию": 9790,
      " кораблей": 9791,
      " долгое": 9792,
      " предметы": 9793,
      "кратце": 9794,
      "вки": 9795,
      "рной": 9796,
      "тром": 9797,
      " пь": 9798,
      "пая": 9799,
      " Трам": 9800,
      " 23": 9801,
      " книгу": 9802,
      " писал": 9803,
      "Боль": 9804,
      "жнему": 9805,
      " дверь": 9806,
      " всевозмо": 9807,
      " Эк": 9808,
      "Помимо": 9809,
      " советской": 9810,
      " оказываются": 9811,
      "ll": 9812,
      "рут": 9813,
      " Серы": 9814,
      " Зи": 9815,
      " знаем": 9816,
      " скром": 9817,
      "Герма": 9818,
      " воду": 9819,
      " тихо": 9820,
      " объедин": 9821,
      " стиль": 9822,
      " Белару": 9823,
      " родителей": 9824,
      "ропри": 9825,
      " раб": 9826,
      " выреза": 9827,
      "лённый": 9828,
      " текста": 9829,
      "зво": 9830,
      "тника": 9831,
      " ввиду": 9832,
      "тании": 9833,
      " Впоследствии": 9834,
      " выйти": 9835,
      " способно": 9836,
      " повре": 9837,
      " воров": 9838,
      "гается": 9839,
      " далё": 9840,
      " старой": 9841,
      "ственной": 9842,
      " собственные": 9843,
      "щиеся": 9844,
      " разработчиков": 9845,
      "пособ": 9846,
      " собственных": 9847,
      "ционный": 9848,
      " вызвало": 9849,
      "25": 9850,
      " заби": 9851,
      "емся": 9852,
      " личность": 9853,
      " заболе": 9854,
      " j": 9855,
      "Два": 9856,
      " пр": 9857,
      " уют": 9858,
      " ере": 9859,
      " зве": 9860,
      " магни": 9861,
      " целях": 9862,
      "тическим": 9863,
      " известного": 9864,
      " эксперимента": 9865,
      "ИТ": 9866,
      "дала": 9867,
      "зировать": 9868,
      " шли": 9869,
      "ждан": 9870,
      " Прин": 9871,
      " некогда": 9872,
      " 2006": 9873,
      " рисо": 9874,
      " восстанов": 9875,
      "ныне": 9876,
      "ритет": 9877,
      " движение": 9878,
      " статус": 9879,
      " заметно": 9880,
      " приятно": 9881,
      "sl": 9882,
      "гри": 9883,
      " Крова": 9884,
      " ничто": 9885,
      " известная": 9886,
      "серви": 9887,
      " метров": 9888,
      "зен": 9889,
      " счастли": 9890,
      " тота": 9891,
      "пах": 9892,
      " Кам": 9893,
      " душу": 9894,
      " режима": 9895,
      " замеча": 9896,
      "вилизован": 9897,
      " поддержки": 9898,
      "стный": 9899,
      " поставить": 9900,
      " выигра": 9901,
      "льному": 9902,
      "праведливо": 9903,
      "нейший": 9904,
      " обычной": 9905,
      "рная": 9906,
      " член": 9907,
      "ляции": 9908,
      " акту": 9909,
      " многим": 9910,
      " Мега": 9911,
      " уважа": 9912,
      "xx": 9913,
      "дский": 9914,
      "тном": 9915,
      "юза": 9916,
      " приказа": 9917,
      "тивного": 9918,
      " куча": 9919,
      " популярный": 9920,
      " Нико": 9921,
      " традиции": 9922,
      " порядка": 9923,
      "Германия": 9924,
      " программ": 9925,
      " жопу": 9926,
      "покалипси": 9927,
      "))": 9928,
      "…»": 9929,
      " дона": 9930,
      " ведёт": 9931,
      " мечта": 9932,
      " готовы": 9933,
      " сезон": 9934,
      " университ": 9935,
      "pt": 9936,
      " просла": 9937,
      "стье": 9938,
      " будь": 9939,
      " бабло": 9940,
      " Теле": 9941,
      " третьего": 9942,
      " серьёзно": 9943,
      " свидетель": 9944,
      "uck": 9945,
      "две": 9946,
      "лль": 9947,
      "тащи": 9948,
      "ерен": 9949,
      "жила": 9950,
      " сидит": 9951,
      " вело": 9952,
      "шок": 9953,
      "ort": 9954,
      "лке": 9955,
      " поведение": 9956,
      "купи": 9957,
      "тус": 9958,
      " Пара": 9959,
      " космос": 9960,
      " битвы": 9961,
      " секретом": 9962,
      " белорус": 9963,
      " следствие": 9964,
      "пел": 9965,
      "лливу": 9966,
      " соблю": 9967,
      " 2005": 9968,
      " тогдаш": 9969,
[...]
